{
  "0": "\u0000",
  "1": "\u0001",
  "2": "\u0002",
  "3": "\u0003",
  "4": "\u0004",
  "5": "\u0005",
  "6": "\u0006",
  "7": "\u0007",
  "8": "\b",
  "9": "\t",
  "10": "\n",
  "11": "\u000b",
  "12": "\f",
  "13": "\r",
  "14": "\u000e",
  "15": "\u000f",
  "16": "\u0010",
  "17": "\u0011",
  "18": "\u0012",
  "19": "\u0013",
  "20": "\u0014",
  "21": "\u0015",
  "22": "\u0016",
  "23": "\u0017",
  "24": "\u0018",
  "25": "\u0019",
  "26": "\u001a",
  "27": "\u001b",
  "28": "\u001c",
  "29": "\u001d",
  "30": "\u001e",
  "31": "\u001f",
  "32": " ",
  "33": "!",
  "34": "\"",
  "35": "#",
  "36": "$",
  "37": "%",
  "38": "&",
  "39": "'",
  "40": "(",
  "41": ")",
  "42": "*",
  "43": "+",
  "44": ",",
  "45": "-",
  "46": ".",
  "47": "/",
  "48": "0",
  "49": "1",
  "50": "2",
  "51": "3",
  "52": "4",
  "53": "5",
  "54": "6",
  "55": "7",
  "56": "8",
  "57": "9",
  "58": ":",
  "59": ";",
  "60": "<",
  "61": "=",
  "62": ">",
  "63": "?",
  "64": "@",
  "65": "A",
  "66": "B",
  "67": "C",
  "68": "D",
  "69": "E",
  "70": "F",
  "71": "G",
  "72": "H",
  "73": "I",
  "74": "J",
  "75": "K",
  "76": "L",
  "77": "M",
  "78": "N",
  "79": "O",
  "80": "P",
  "81": "Q",
  "82": "R",
  "83": "S",
  "84": "T",
  "85": "U",
  "86": "V",
  "87": "W",
  "88": "X",
  "89": "Y",
  "90": "Z",
  "91": "[",
  "92": "\\",
  "93": "]",
  "94": "^",
  "95": "_",
  "96": "`",
  "97": "a",
  "98": "b",
  "99": "c",
  "100": "d",
  "101": "e",
  "102": "f",
  "103": "g",
  "104": "h",
  "105": "i",
  "106": "j",
  "107": "k",
  "108": "l",
  "109": "m",
  "110": "n",
  "111": "o",
  "112": "p",
  "113": "q",
  "114": "r",
  "115": "s",
  "116": "t",
  "117": "u",
  "118": "v",
  "119": "w",
  "120": "x",
  "121": "y",
  "122": "z",
  "123": "{",
  "124": "|",
  "125": "}",
  "126": "~",
  "127": "",
  "128": "�",
  "129": "�",
  "130": "�",
  "131": "�",
  "132": "�",
  "133": "�",
  "134": "�",
  "135": "�",
  "136": "�",
  "137": "�",
  "138": "�",
  "139": "�",
  "140": "�",
  "141": "�",
  "142": "�",
  "143": "�",
  "144": "�",
  "145": "�",
  "146": "�",
  "147": "�",
  "148": "�",
  "149": "�",
  "150": "�",
  "151": "�",
  "152": "�",
  "153": "�",
  "154": "�",
  "155": "�",
  "156": "�",
  "157": "�",
  "158": "�",
  "159": "�",
  "160": "�",
  "161": "�",
  "162": "�",
  "163": "�",
  "164": "�",
  "165": "�",
  "166": "�",
  "167": "�",
  "168": "�",
  "169": "�",
  "170": "�",
  "171": "�",
  "172": "�",
  "173": "�",
  "174": "�",
  "175": "�",
  "176": "�",
  "177": "�",
  "178": "�",
  "179": "�",
  "180": "�",
  "181": "�",
  "182": "�",
  "183": "�",
  "184": "�",
  "185": "�",
  "186": "�",
  "187": "�",
  "188": "�",
  "189": "�",
  "190": "�",
  "191": "�",
  "192": "�",
  "193": "�",
  "194": "�",
  "195": "�",
  "196": "�",
  "197": "�",
  "198": "�",
  "199": "�",
  "200": "�",
  "201": "�",
  "202": "�",
  "203": "�",
  "204": "�",
  "205": "�",
  "206": "�",
  "207": "�",
  "208": "�",
  "209": "�",
  "210": "�",
  "211": "�",
  "212": "�",
  "213": "�",
  "214": "�",
  "215": "�",
  "216": "�",
  "217": "�",
  "218": "�",
  "219": "�",
  "220": "�",
  "221": "�",
  "222": "�",
  "223": "�",
  "224": "�",
  "225": "�",
  "226": "�",
  "227": "�",
  "228": "�",
  "229": "�",
  "230": "�",
  "231": "�",
  "232": "�",
  "233": "�",
  "234": "�",
  "235": "�",
  "236": "�",
  "237": "�",
  "238": "�",
  "239": "�",
  "240": "�",
  "241": "�",
  "242": "�",
  "243": "�",
  "244": "�",
  "245": "�",
  "246": "�",
  "247": "�",
  "248": "�",
  "249": "�",
  "250": "�",
  "251": "�",
  "252": "�",
  "253": "�",
  "254": "�",
  "255": "�",
  "256": "<|endoftext|>",
  "257": "he",
  "258": " t",
  "259": " a",
  "260": " s",
  "261": "nd",
  "262": " w",
  "263": " the",
  "264": "ed",
  "265": " and",
  "266": " to",
  "267": " b",
  "268": "in",
  "269": " h",
  "270": " wa",
  "271": "re",
  "272": "ou",
  "273": " f",
  "274": "it",
  "275": " T",
  "276": " l",
  "277": " c",
  "278": " d",
  "279": "er",
  "280": " he",
  "281": " m",
  "282": " p",
  "283": " was",
  "284": "om",
  "285": " o",
  "286": "ay",
  "287": " The",
  "288": "ar",
  "289": "is",
  "290": "ing",
  "291": "il",
  "292": " g",
  "293": "id",
  "294": " S",
  "295": "at",
  "296": "en",
  "297": " n",
  "298": " sa",
  "299": " ha",
  "300": "an",
  "301": "im",
  "302": "or",
  "303": "on",
  "304": " it",
  "305": " th",
  "306": " H",
  "307": "ll",
  "308": "le",
  "309": " \"",
  "310": " her",
  "311": "ot",
  "312": "et",
  "313": " She",
  "314": "ir",
  "315": " He",
  "316": " They",
  "317": "es",
  "318": "end",
  "319": " in",
  "320": "ver",
  "321": "ut",
  "322": "ow",
  "323": "ck",
  "324": " L",
  "325": " u",
  "326": "ld",
  "327": " y",
  "328": "oo",
  "329": " said",
  "330": "ig",
  "331": "ily",
  "332": "ex",
  "333": " r",
  "334": " be",
  "335": " I",
  "336": "am",
  "337": " st",
  "338": "ce",
  "339": "ke",
  "340": " she",
  "341": "ve",
  "342": "pp",
  "343": "ith",
  "344": " with",
  "345": "On",
  "346": " on",
  "347": " you",
  "348": " of",
  "349": "ked",
  "350": "ri",
  "351": " Lily",
  "352": " so",
  "353": "ft",
  "354": "nt",
  "355": " his",
  "356": " pl",
  "357": "ad",
  "358": "very",
  "359": " B",
  "360": " day",
  "361": " that",
  "362": " up",
  "363": " play",
  "364": " had",
  "365": "st",
  "366": "el",
  "367": " they",
  "368": "ext",
  "369": " mom",
  "370": " we",
  "371": " for",
  "372": " e",
  "373": " M",
  "374": "un",
  "375": "ould",
  "376": "'s",
  "377": "my",
  "378": " li",
  "379": "oft",
  "380": "<|",
  "381": "endoft",
  "382": "endoftext",
  "383": "|>",
  "384": "|>\n",
  "385": "ch",
  "386": "ent",
  "387": " happ",
  "388": " want",
  "389": "itt",
  "390": " sh",
  "391": "out",
  "392": "her",
  "393": " do",
  "394": "ly",
  "395": " not",
  "396": "ome",
  "397": "se",
  "398": " very",
  "399": "ound",
  "400": "all",
  "401": " wh",
  "402": "ime",
  "403": "ittle",
  "404": " k",
  "405": " time",
  "406": " little",
  "407": "al",
  "408": " there",
  "409": "ht",
  "410": ".<|",
  "411": " re",
  "412": " A",
  "413": " happy",
  "414": " sm",
  "415": " It",
  "416": "  ",
  "417": " big",
  "418": " is",
  "419": " but",
  "420": "ack",
  "421": " an",
  "422": " saw",
  "423": "riend",
  "424": ".\"",
  "425": " friend",
  "426": "ry",
  "427": " as",
  "428": "ra",
  "429": " ne",
  "430": "One",
  "431": "ide",
  "432": "ake",
  "433": "'t",
  "434": "!\"",
  "435": "ug",
  "436": " loo",
  "437": "ved",
  "438": " were",
  "439": " Tim",
  "440": "ore",
  "441": "Once",
  "442": " lo",
  "443": " One",
  "444": "ec",
  "445": " him",
  "446": " too",
  "447": " go",
  "448": " J",
  "449": " bo",
  "450": " se",
  "451": "irl",
  "452": " are",
  "453": " j",
  "454": "ard",
  "455": " wanted",
  "456": "ill",
  "457": " girl",
  "458": " upon",
  "459": " them",
  "460": " out",
  "461": " at",
  "462": "ur",
  "463": "ind",
  "464": " their",
  "465": "fu",
  "466": " sp",
  "467": "way",
  "468": " smil",
  "469": " did",
  "470": " could",
  "471": " Tom",
  "472": "hen",
  "473": " Ben",
  "474": " have",
  "475": "ain",
  "476": "art",
  "477": "hed",
  "478": "ter",
  "479": " ex",
  "480": "rom",
  "481": " went",
  "482": " ar",
  "483": "ic",
  "484": " can",
  "485": " W",
  "486": "lp",
  "487": "ful",
  "488": "ood",
  "489": "?\"",
  "490": "hing",
  "491": " friends",
  "492": " nam",
  "493": " But",
  "494": "ight",
  "495": " all",
  "496": " help",
  "497": " kn",
  "498": "um",
  "499": "one",
  "500": "ark",
  "501": " back",
  "502": " say",
  "503": "You",
  "504": " fun",
  "505": " cl",
  "506": "are",
  "507": " no",
  "508": " le",
  "509": "op",
  "510": " Timmy",
  "511": " smiled",
  "512": " sc",
  "513": " named",
  "514": " al",
  "515": "oug",
  "516": " loved",
  "517": "side",
  "518": "elt",
  "519": " man",
  "520": " asked",
  "521": "ick",
  "522": " toy",
  "523": " like",
  "524": " fe",
  "525": " felt",
  "526": " looked",
  "527": " some",
  "528": " around",
  "529": " see",
  "530": " me",
  "531": "ame",
  "532": "omet",
  "533": " ro",
  "534": " br",
  "535": "ure",
  "536": " bir",
  "537": "get",
  "538": "ice",
  "539": " boy",
  "540": " would",
  "541": " start",
  "542": "ong",
  "543": "â",
  "544": "�",
  "545": "€",
  "546": "ss",
  "547": " bird",
  "548": " somet",
  "549": " fa",
  "550": "dd",
  "551": "ings",
  "552": " ag",
  "553": " wor",
  "554": " what",
  "555": "ade",
  "556": " make",
  "557": "king",
  "558": " Mom",
  "559": ",\"",
  "560": "ie",
  "561": "own",
  "562": " tre",
  "563": " ran",
  "564": "gether",
  "565": " You",
  "566": " away",
  "567": "ag",
  "568": "ared",
  "569": " says",
  "570": " started",
  "571": "oud",
  "572": " made",
  "573": " car",
  "574": " something",
  "575": " together",
  "576": "ited",
  "577": "ther",
  "578": " park",
  "579": " co",
  "580": " sad",
  "581": " other",
  "582": " new",
  "583": " exc",
  "584": " E",
  "585": " put",
  "586": " from",
  "587": " pr",
  "588": "ell",
  "589": " la",
  "590": " hug",
  "591": "ble",
  "592": " mu",
  "593": "ook",
  "594": "ach",
  "595": " again",
  "596": "if",
  "597": " home",
  "598": " when",
  "599": " F",
  "600": " good",
  "601": "hat",
  "602": "ep",
  "603": " who",
  "604": "est",
  "605": "ried",
  "606": " found",
  "607": " fl",
  "608": " then",
  "609": " ch",
  "610": " dec",
  "611": "pped",
  "612": " wal",
  "613": "as",
  "614": " get",
  "615": "qu",
  "616": " D",
  "617": " playing",
  "618": "ought",
  "619": "pl",
  "620": "ally",
  "621": " sw",
  "622": " Su",
  "623": "ous",
  "624": "nn",
  "625": " things",
  "626": " excited",
  "627": " liked",
  "628": " got",
  "629": "uck",
  "630": "ro",
  "631": "ided",
  "632": " decided",
  "633": " bl",
  "634": "ave",
  "635": " v",
  "636": " came",
  "637": " every",
  "638": "ara",
  "639": " your",
  "640": " Sam",
  "641": "ax",
  "642": " scared",
  "643": "ust",
  "644": " one",
  "645": " dog",
  "646": " down",
  "647": "ouse",
  "648": "ny",
  "649": " find",
  "650": " care",
  "651": " bec",
  "652": "ist",
  "653": " than",
  "654": " feel",
  "655": "ap",
  "656": "nna",
  "657": " dad",
  "658": " ab",
  "659": " my",
  "660": " look",
  "661": " ke",
  "662": "our",
  "663": " will",
  "664": "arn",
  "665": " gr",
  "666": "nder",
  "667": " gra",
  "668": "ways",
  "669": "ess",
  "670": " didn",
  "671": " Max",
  "672": " po",
  "673": "fe",
  "674": " always",
  "675": " took",
  "676": " about",
  "677": "ant",
  "678": "bb",
  "679": " lot",
  "680": " mommy",
  "681": " toys",
  "682": " kne",
  "683": "ers",
  "684": "ise",
  "685": " So",
  "686": " bu",
  "687": " Sara",
  "688": "ite",
  "689": " outside",
  "690": " tree",
  "691": " thought",
  "692": " ball",
  "693": " more",
  "694": "eci",
  "695": "ened",
  "696": "ched",
  "697": " ta",
  "698": " old",
  "699": " Anna",
  "700": " ho",
  "701": " learn",
  "702": "ret",
  "703": " int",
  "704": "ged",
  "705": " When",
  "706": " pu",
  "707": " know",
  "708": " laug",
  "709": " take",
  "710": "ecial",
  "711": " special",
  "712": " sor",
  "713": " cat",
  "714": "dden",
  "715": " knew",
  "716": "ive",
  "717": " Her",
  "718": "ia",
  "719": " pe",
  "720": " any",
  "721": "ddenly",
  "722": " tr",
  "723": "fter",
  "724": " how",
  "725": " Jo",
  "726": "au",
  "727": "ma",
  "728": " show",
  "729": "ink",
  "730": " sorry",
  "731": " tw",
  "732": " much",
  "733": "ish",
  "734": " run",
  "735": "and",
  "736": " hand",
  "737": " Every",
  "738": " sl",
  "739": " Jack",
  "740": "ven",
  "741": " house",
  "742": " or",
  "743": " op",
  "744": " sk",
  "745": " mo",
  "746": " clo",
  "747": " sun",
  "748": " into",
  "749": " tried",
  "750": " inside",
  "751": "ate",
  "752": " told",
  "753": " water",
  "754": " this",
  "755": " en",
  "756": "ank",
  "757": " if",
  "758": " proud",
  "759": "ump",
  "760": " qu",
  "761": " over",
  "762": "here",
  "763": " couldn",
  "764": "dy",
  "765": " gave",
  "766": " heard",
  "767": " never",
  "768": "by",
  "769": " each",
  "770": "ace",
  "771": " room",
  "772": " expl",
  "773": "ty",
  "774": " eat",
  "775": " Suddenly",
  "776": " We",
  "777": "other",
  "778": "ause",
  "779": " pick",
  "780": "ion",
  "781": " pret",
  "782": " played",
  "783": "ge",
  "784": "etter",
  "785": " Then",
  "786": " just",
  "787": "ak",
  "788": " hugged",
  "789": " gre",
  "790": " off",
  "791": " com",
  "792": " wat",
  "793": "oth",
  "794": " Mia",
  "795": " box",
  "796": " nice",
  "797": " From",
  "798": "ue",
  "799": "'m",
  "800": " str",
  "801": " because",
  "802": " need",
  "803": " His",
  "804": "ile",
  "805": " many",
  "806": " And",
  "807": " fo",
  "808": "uc",
  "809": " jo",
  "810": " bear",
  "811": " small",
  "812": "iz",
  "813": "ving",
  "814": " long",
  "815": "ine",
  "816": "gry",
  "817": "sed",
  "818": "imal",
  "819": "ort",
  "820": " animal",
  "821": " sn",
  "822": "ough",
  "823": " try",
  "824": " unt",
  "825": "ild",
  "826": "sel",
  "827": "urt",
  "828": " until",
  "829": " C",
  "830": " kind",
  "831": " learned",
  "832": " im",
  "833": " â",
  "834": " love",
  "835": " better",
  "836": " flow",
  "837": " call",
  "838": " don",
  "839": " end",
  "840": " ad",
  "841": " best",
  "842": "vent",
  "843": "Yes",
  "844": "ars",
  "845": "urp",
  "846": "ady",
  "847": "em",
  "848": "ream",
  "849": "aut",
  "850": "urn",
  "851": " cle",
  "852": "ves",
  "853": "€�",
  "854": "€œ",
  "855": "arden",
  "856": " garden",
  "857": " fast",
  "858": " cu",
  "859": " careful",
  "860": "ber",
  "861": "lly",
  "862": " beaut",
  "863": " even",
  "864": "pt",
  "865": " bra",
  "866": " fi",
  "867": "ies",
  "868": " thanked",
  "869": " che",
  "870": " laughed",
  "871": " sky",
  "872": " by",
  "873": " jump",
  "874": " gl",
  "875": "ase",
  "876": " loud",
  "877": "self",
  "878": "Th",
  "879": "iny",
  "880": " te",
  "881": " way",
  "882": "wn",
  "883": " beauti",
  "884": " come",
  "885": "lew",
  "886": " list",
  "887": " wo",
  "888": " beautiful",
  "889": " hard",
  "890": " lots",
  "891": " ra",
  "892": " still",
  "893": " fam",
  "894": " animals",
  "895": " hurt",
  "896": " under",
  "897": "ect",
  "898": " stay",
  "899": "ning",
  "900": " let",
  "901": "ct",
  "902": " P",
  "903": " both",
  "904": "It",
  "905": "sh",
  "906": "hes",
  "907": "be",
  "908": " safe",
  "909": "ool",
  "910": "ree",
  "911": " col",
  "912": " two",
  "913": " bad",
  "914": " book",
  "915": " imp",
  "916": "ople",
  "917": " rem",
  "918": "ane",
  "919": " As",
  "920": " lived",
  "921": "kay",
  "922": "ock",
  "923": "ucy",
  "924": " walked",
  "925": "ast",
  "926": " su",
  "927": "urpr",
  "928": " brave",
  "929": " should",
  "930": " its",
  "931": " Lucy",
  "932": "ob",
  "933": "ished",
  "934": " angry",
  "935": " surpr",
  "936": " family",
  "937": "ress",
  "938": "igh",
  "939": " people",
  "940": " flew",
  "941": " called",
  "942": "No",
  "943": " red",
  "944": " After",
  "945": " stor",
  "946": " Joh",
  "947": "ip",
  "948": " soon",
  "949": " fin",
  "950": "Let",
  "951": "led",
  "952": " kept",
  "953": " fore",
  "954": "fore",
  "955": " dan",
  "956": " share",
  "957": " fly",
  "958": "!<|",
  "959": "ised",
  "960": "dded",
  "961": " pic",
  "962": "€�",
  "963": " door",
  "964": " going",
  "965": " pretty",
  "966": " Mommy",
  "967": " G",
  "968": " keep",
  "969": " now",
  "970": " Dad",
  "971": " rock",
  "972": " clean",
  "973": " dra",
  "974": "ary",
  "975": " advent",
  "976": "ummy",
  "977": " noise",
  "978": " opened",
  "979": " shiny",
  "980": "age",
  "981": " explore",
  "982": " wind",
  "983": " doll",
  "984": " cry",
  "985": " con",
  "986": " ide",
  "987": " before",
  "988": "ied",
  "989": "illy",
  "990": " real",
  "991": " sto",
  "992": "so",
  "993": "What",
  "994": " ground",
  "995": " also",
  "996": "les",
  "997": " turn",
  "998": "��",
  "999": "€™",
  "1000": " ey",
  "1001": " far",
  "1002": " idea",
  "1003": " fr",
  "1004": " Sp",
  "1005": " nodded",
  "1006": " color",
  "1007": " war",
  "1008": "ture",
  "1009": " feeling",
  "1010": " John",
  "1011": " un",
  "1012": " picked",
  "1013": "oy",
  "1014": "imb",
  "1015": "th",
  "1016": " next",
  "1017": " walking",
  "1018": "thing",
  "1019": " climb",
  "1020": " has",
  "1021": " ma",
  "1022": " thr",
  "1023": " while",
  "1024": "eet",
  "1025": " bed",
  "1026": " adventure",
  "1027": " smile",
  "1028": " Bob",
  "1029": "kes",
  "1030": "That",
  "1031": "aybe",
  "1032": "iced",
  "1033": "ger",
  "1034": "Thank",
  "1035": "ious",
  "1036": " being",
  "1037": " dif",
  "1038": " wr",
  "1039": " clos",
  "1040": " food",
  "1041": "joy",
  "1042": " give",
  "1043": " picture",
  "1044": " think",
  "1045": " looking",
  "1046": " N",
  "1047": " del",
  "1048": "ff",
  "1049": "ac",
  "1050": " truck",
  "1051": " wait",
  "1052": " eyes",
  "1053": "ught",
  "1054": " tow",
  "1055": " repl",
  "1056": " bro",
  "1057": " stopped",
  "1058": "ting",
  "1059": " listen",
  "1060": " gi",
  "1061": " after",
  "1062": " bre",
  "1063": " own",
  "1064": " vo",
  "1065": " walk",
  "1066": "ember",
  "1067": " wonder",
  "1068": " great",
  "1069": " Spot",
  "1070": " R",
  "1071": " hands",
  "1072": " shout",
  "1073": " head",
  "1074": " enjoy",
  "1075": " import",
  "1076": " flowers",
  "1077": " ever",
  "1078": " Sue",
  "1079": " noticed",
  "1080": " blue",
  "1081": " forest",
  "1082": "bbit",
  "1083": "ized",
  "1084": " app",
  "1085": "irst",
  "1086": " near",
  "1087": " quick",
  "1088": " dis",
  "1089": " de",
  "1090": "able",
  "1091": " important",
  "1092": " remember",
  "1093": "ted",
  "1094": " fish",
  "1095": "llow",
  "1096": " sound",
  "1097": "oon",
  "1098": " slide",
  "1099": " us",
  "1100": "maz",
  "1101": " replied",
  "1102": " amaz",
  "1103": " ac",
  "1104": "lease",
  "1105": " work",
  "1106": " watch",
  "1107": " rain",
  "1108": " showed",
  "1109": " rabbit",
  "1110": " okay",
  "1111": "gan",
  "1112": " tal",
  "1113": "bye",
  "1114": "Lily",
  "1115": "fere",
  "1116": "bbed",
  "1117": " ask",
  "1118": " ru",
  "1119": " differe",
  "1120": " mean",
  "1121": " Sarah",
  "1122": " right",
  "1123": " tou",
  "1124": " ye",
  "1125": "day",
  "1126": " watched",
  "1127": " bright",
  "1128": " follow",
  "1129": " everyone",
  "1130": " strong",
  "1131": "We",
  "1132": " squ",
  "1133": " stick",
  "1134": " use",
  "1135": " been",
  "1136": " mor",
  "1137": " voice",
  "1138": " tra",
  "1139": "ered",
  "1140": " quickly",
  "1141": "ath",
  "1142": " our",
  "1143": " where",
  "1144": " yell",
  "1145": " different",
  "1146": " child",
  "1147": " curi",
  "1148": " boat",
  "1149": "ng",
  "1150": " sure",
  "1151": " Jane",
  "1152": " became",
  "1153": " goodbye",
  "1154": " face",
  "1155": " place",
  "1156": "ange",
  "1157": " hop",
  "1158": " high",
  "1159": " Th",
  "1160": " am",
  "1161": "Look",
  "1162": "aught",
  "1163": " closer",
  "1164": " store",
  "1165": " warm",
  "1166": " does",
  "1167": " cr",
  "1168": " dress",
  "1169": "unny",
  "1170": " curious",
  "1171": " mag",
  "1172": "ila",
  "1173": " cook",
  "1174": " bel",
  "1175": " forg",
  "1176": " tell",
  "1177": " fav",
  "1178": "ndma",
  "1179": "ass",
  "1180": "ount",
  "1181": "co",
  "1182": " three",
  "1183": " Joe",
  "1184": "leep",
  "1185": " night",
  "1186": " open",
  "1187": " cake",
  "1188": "more",
  "1189": " here",
  "1190": " anymore",
  "1191": " block",
  "1192": " first",
  "1193": "itc",
  "1194": "ull",
  "1195": " pull",
  "1196": "iss",
  "1197": "ached",
  "1198": "ired",
  "1199": " butter",
  "1200": " z",
  "1201": "imes",
  "1202": "orn",
  "1203": " sweet",
  "1204": " pain",
  "1205": " kid",
  "1206": " grabbed",
  "1207": "Can",
  "1208": "isy",
  "1209": " In",
  "1210": " only",
  "1211": " mon",
  "1212": " lea",
  "1213": " fell",
  "1214": " ba",
  "1215": " cont",
  "1216": " Everyone",
  "1217": " birds",
  "1218": " jumped",
  "1219": " glad",
  "1220": " bit",
  "1221": " sand",
  "1222": "itchen",
  "1223": " kitchen",
  "1224": "Mom",
  "1225": " That",
  "1226": " helped",
  "1227": " sees",
  "1228": " fire",
  "1229": " per",
  "1230": " flo",
  "1231": " stop",
  "1232": " happened",
  "1233": " sing",
  "1234": " grass",
  "1235": " bunny",
  "1236": " shouted",
  "1237": " story",
  "1238": " Let",
  "1239": " tri",
  "1240": "nts",
  "1241": " dr",
  "1242": "air",
  "1243": " Do",
  "1244": " reached",
  "1245": "ppy",
  "1246": " beh",
  "1247": "ey",
  "1248": " realized",
  "1249": " yummy",
  "1250": " brother",
  "1251": " lady",
  "1252": " mum",
  "1253": " having",
  "1254": " prin",
  "1255": "ins",
  "1256": " favor",
  "1257": " Lila",
  "1258": "'re",
  "1259": " mess",
  "1260": " favorite",
  "1261": " draw",
  "1262": " cre",
  "1263": " rest",
  "1264": " through",
  "1265": " game",
  "1266": " hat",
  "1267": " ate",
  "1268": " less",
  "1269": " underst",
  "1270": "akes",
  "1271": " soft",
  "1272": " pare",
  "1273": "zy",
  "1274": " thing",
  "1275": " really",
  "1276": "ather",
  "1277": " ready",
  "1278": " began",
  "1279": "where",
  "1280": " pretend",
  "1281": " Can",
  "1282": " world",
  "1283": " looks",
  "1284": "ken",
  "1285": " himself",
  "1286": " magic",
  "1287": "fully",
  "1288": " pap",
  "1289": " done",
  "1290": " butterf",
  "1291": " making",
  "1292": " cut",
  "1293": " coming",
  "1294": " duck",
  "1295": "ater",
  "1296": " pond",
  "1297": " kids",
  "1298": " waved",
  "1299": " why",
  "1300": " prom",
  "1301": " tired",
  "1302": " fro",
  "1303": " fix",
  "1304": "ster",
  "1305": " mouse",
  "1306": " worry",
  "1307": "olly",
  "1308": " part",
  "1309": " cars",
  "1310": " ste",
  "1311": " delic",
  "1312": " name",
  "1313": " flower",
  "1314": "ign",
  "1315": " Tommy",
  "1316": " Fin",
  "1317": " fill",
  "1318": "Wow",
  "1319": "aisy",
  "1320": " touch",
  "1321": "eddy",
  "1322": " funny",
  "1323": " catch",
  "1324": "bo",
  "1325": " used",
  "1326": " seen",
  "1327": " hair",
  "1328": " tast",
  "1329": "ient",
  "1330": " top",
  "1331": " parents",
  "1332": "rel",
  "1333": " another",
  "1334": " Sally",
  "1335": " hold",
  "1336": " hopped",
  "1337": " cried",
  "1338": "iver",
  "1339": "oney",
  "1340": "mer",
  "1341": " doing",
  "1342": " cool",
  "1343": " blocks",
  "1344": " surprise",
  "1345": "Tom",
  "1346": " light",
  "1347": "hy",
  "1348": " green",
  "1349": " thank",
  "1350": " lesson",
  "1351": "ation",
  "1352": " read",
  "1353": " floor",
  "1354": "\".",
  "1355": " din",
  "1356": " wood",
  "1357": " dri",
  "1358": "Don",
  "1359": "ards",
  "1360": " full",
  "1361": " trees",
  "1362": " running",
  "1363": " window",
  "1364": " worked",
  "1365": " years",
  "1366": " cra",
  "1367": " -",
  "1368": " dro",
  "1369": " dark",
  "1370": " behind",
  "1371": " likes",
  "1372": " smell",
  "1373": " spot",
  "1374": " wished",
  "1375": " paper",
  "1376": "ued",
  "1377": " yellow",
  "1378": "andy",
  "1379": " bow",
  "1380": "ren",
  "1381": " swim",
  "1382": " happily",
  "1383": " bag",
  "1384": " sat",
  "1385": "ul",
  "1386": " sho",
  "1387": " sleep",
  "1388": "us",
  "1389": "aring",
  "1390": " surprised",
  "1391": " Daisy",
  "1392": "ely",
  "1393": " frog",
  "1394": " butterfly",
  "1395": "ike",
  "1396": " swing",
  "1397": " set",
  "1398": " carefully",
  "1399": " Em",
  "1400": " slow",
  "1401": " remembered",
  "1402": " lost",
  "1403": " cold",
  "1404": " Benny",
  "1405": " held",
  "1406": "uff",
  "1407": "ello",
  "1408": "Hello",
  "1409": " hole",
  "1410": " ice",
  "1411": " laugh",
  "1412": "rew",
  "1413": " needed",
  "1414": " At",
  "1415": " buy",
  "1416": " perf",
  "1417": " left",
  "1418": " K",
  "1419": "ons",
  "1420": " move",
  "1421": "reed",
  "1422": "cess",
  "1423": " anything",
  "1424": " dream",
  "1425": " tall",
  "1426": " enjoyed",
  "1427": " wrong",
  "1428": " arri",
  "1429": " hear",
  "1430": " Now",
  "1431": " fair",
  "1432": " air",
  "1433": " followed",
  "1434": " Finally",
  "1435": " books",
  "1436": "ross",
  "1437": " el",
  "1438": " children",
  "1439": " bus",
  "1440": " hun",
  "1441": " delicious",
  "1442": " table",
  "1443": " finished",
  "1444": "!â",
  "1445": " contin",
  "1446": " friendly",
  "1447": " dir",
  "1448": " hot",
  "1449": " snow",
  "1450": " herself",
  "1451": " To",
  "1452": " Gra",
  "1453": "ds",
  "1454": "lf",
  "1455": " hill",
  "1456": "ens",
  "1457": " understand",
  "1458": " please",
  "1459": " close",
  "1460": " Billy",
  "1461": "ined",
  "1462": " hid",
  "1463": " Jim",
  "1464": "sp",
  "1465": " arrived",
  "1466": " cast",
  "1467": " else",
  "1468": " arm",
  "1469": " baby",
  "1470": " wonderful",
  "1471": " might",
  "1472": " gent",
  "1473": " tight",
  "1474": " forgot",
  "1475": " Amy",
  "1476": "ield",
  "1477": " bug",
  "1478": " colors",
  "1479": " rel",
  "1480": " build",
  "1481": " broken",
  "1482": " able",
  "1483": ".â",
  "1484": " gone",
  "1485": "av",
  "1486": "ner",
  "1487": " yes",
  "1488": "atter",
  "1489": " song",
  "1490": "ich",
  "1491": " wall",
  "1492": " squir",
  "1493": " filled",
  "1494": " agreed",
  "1495": " someone",
  "1496": " gu",
  "1497": " continued",
  "1498": "room",
  "1499": " There",
  "1500": " creat",
  "1501": "asure",
  "1502": "'ll",
  "1503": " count",
  "1504": " Jen",
  "1505": " wants",
  "1506": " squirrel",
  "1507": " pink",
  "1508": " leaves",
  "1509": "ask",
  "1510": " This",
  "1511": " enough",
  "1512": " Molly",
  "1513": " lion",
  "1514": "ama",
  "1515": "ee",
  "1516": "OK",
  "1517": " morning",
  "1518": " vis",
  "1519": " moment",
  "1520": " finally",
  "1521": " getting",
  "1522": " stayed",
  "1523": " cookies",
  "1524": " break",
  "1525": "shed",
  "1526": "app",
  "1527": " poin",
  "1528": "ance",
  "1529": " beach",
  "1530": " Maybe",
  "1531": " few",
  "1532": " scary",
  "1533": " fight",
  "1534": " sometimes",
  "1535": "row",
  "1536": "ash",
  "1537": "ries",
  "1538": "ced",
  "1539": "red",
  "1540": " What",
  "1541": " turned",
  "1542": " hungry",
  "1543": " fall",
  "1544": " dinner",
  "1545": "gon",
  "1546": " mother",
  "1547": " grandma",
  "1548": " ju",
  "1549": " wet",
  "1550": " amazing",
  "1551": "apped",
  "1552": " trying",
  "1553": " cream",
  "1554": " daddy",
  "1555": " perfect",
  "1556": " pi",
  "1557": " makes",
  "1558": " castle",
  "1559": " others",
  "1560": " climbed",
  "1561": "key",
  "1562": "oup",
  "1563": " pictures",
  "1564": "icy",
  "1565": " comp",
  "1566": "amp",
  "1567": " talk",
  "1568": " met",
  "1569": " mus",
  "1570": "ere",
  "1571": " white",
  "1572": "oom",
  "1573": " listened",
  "1574": " smiles",
  "1575": "man",
  "1576": " fur",
  "1577": " balloon",
  "1578": " clot",
  "1579": "oring",
  "1580": " alone",
  "1581": " clothes",
  "1582": " pol",
  "1583": " tail",
  "1584": " joy",
  "1585": "ated",
  "1586": "rot",
  "1587": "Oh",
  "1588": " puppy",
  "1589": " spl",
  "1590": "ence",
  "1591": " mar",
  "1592": " wasn",
  "1593": " brought",
  "1594": " deep",
  "1595": " everything",
  "1596": " pet",
  "1597": " sear",
  "1598": " strange",
  "1599": "ister",
  "1600": "ctor",
  "1601": " spark",
  "1602": "The",
  "1603": "elc",
  "1604": "der",
  "1605": " sit",
  "1606": " woods",
  "1607": " grow",
  "1608": " pulled",
  "1609": "ling",
  "1610": " sail",
  "1611": "ott",
  "1612": " won",
  "1613": " plan",
  "1614": " ride",
  "1615": "eter",
  "1616": " asks",
  "1617": " fox",
  "1618": " pie",
  "1619": " danger",
  "1620": " treat",
  "1621": "uffy",
  "1622": " roll",
  "1623": " visit",
  "1624": "os",
  "1625": " leave",
  "1626": "med",
  "1627": " pat",
  "1628": " Jill",
  "1629": "ucky",
  "1630": "This",
  "1631": " music",
  "1632": " amazed",
  "1633": " waited",
  "1634": " Soon",
  "1635": " teddy",
  "1636": " hide",
  "1637": "me",
  "1638": "But",
  "1639": "ang",
  "1640": "ever",
  "1641": " towards",
  "1642": "ower",
  "1643": " field",
  "1644": " land",
  "1645": " pre",
  "1646": " flying",
  "1647": "zz",
  "1648": " All",
  "1649": " pen",
  "1650": " silly",
  "1651": " shared",
  "1652": " runs",
  "1653": "ained",
  "1654": " owner",
  "1655": " cloud",
  "1656": "ape",
  "1657": " living",
  "1658": "ugg",
  "1659": " qui",
  "1660": " job",
  "1661": "ames",
  "1662": " promised",
  "1663": " Daddy",
  "1664": "Okay",
  "1665": " belie",
  "1666": "igg",
  "1667": " moral",
  "1668": " side",
  "1669": "ol",
  "1670": "gs",
  "1671": "orm",
  "1672": " lake",
  "1673": " thinks",
  "1674": "cket",
  "1675": "ix",
  "1676": "Maybe",
  "1677": "ope",
  "1678": " paint",
  "1679": " sec",
  "1680": "thy",
  "1681": " sister",
  "1682": "ually",
  "1683": " party",
  "1684": " quiet",
  "1685": "ises",
  "1686": " must",
  "1687": "cle",
  "1688": " race",
  "1689": "avy",
  "1690": " money",
  "1691": " wear",
  "1692": "sw",
  "1693": " worried",
  "1694": "ased",
  "1695": " answ",
  "1696": "unch",
  "1697": " slowly",
  "1698": " pot",
  "1699": "eces",
  "1700": " Mary",
  "1701": " colorful",
  "1702": " smart",
  "1703": " faster",
  "1704": " grate",
  "1705": " ow",
  "1706": " dance",
  "1707": " pieces",
  "1708": " bran",
  "1709": " bott",
  "1710": " welc",
  "1711": " broke",
  "1712": " cup",
  "1713": " grateful",
  "1714": " gift",
  "1715": " such",
  "1716": " bigger",
  "1717": "ze",
  "1718": " train",
  "1719": "ph",
  "1720": "fort",
  "1721": " snack",
  "1722": "Mommy",
  "1723": " cho",
  "1724": " Fl",
  "1725": " reach",
  "1726": " blank",
  "1727": " Mr",
  "1728": " monster",
  "1729": " pro",
  "1730": " plant",
  "1731": " join",
  "1732": " river",
  "1733": " black",
  "1734": "less",
  "1735": " win",
  "1736": " candy",
  "1737": "ire",
  "1738": " blanket",
  "1739": " scream",
  "1740": "uit",
  "1741": " treasure",
  "1742": "ear",
  "1743": " magical",
  "1744": " princess",
  "1745": " ele",
  "1746": " stu",
  "1747": " Mama",
  "1748": " bike",
  "1749": " dangerous",
  "1750": " Just",
  "1751": " sign",
  "1752": " dragon",
  "1753": " across",
  "1754": " monkey",
  "1755": " bar",
  "1756": " everywhere",
  "1757": " most",
  "1758": " helping",
  "1759": " nap",
  "1760": " farmer",
  "1761": "outh",
  "1762": " em",
  "1763": " mouth",
  "1764": "Why",
  "1765": "set",
  "1766": " disapp",
  "1767": " pa",
  "1768": " words",
  "1769": " je",
  "1770": "ipped",
  "1771": "Sure",
  "1772": " stre",
  "1773": "ored",
  "1774": " tower",
  "1775": "ming",
  "1776": "eared",
  "1777": "Hi",
  "1778": " threw",
  "1779": " stepped",
  "1780": " heavy",
  "1781": " dolls",
  "1782": " pass",
  "1783": " bite",
  "1784": "de",
  "1785": " bowl",
  "1786": " dirty",
  "1787": " twins",
  "1788": " same",
  "1789": " mix",
  "1790": " crying",
  "1791": " bee",
  "1792": " spr",
  "1793": " doctor",
  "1794": "ident",
  "1795": " acc",
  "1796": " believe",
  "1797": " wouldn",
  "1798": " bath",
  "1799": " heal",
  "1800": "chool",
  "1801": " Grandma",
  "1802": " hig",
  "1803": "bble",
  "1804": " closed",
  "1805": " carrot",
  "1806": " heart",
  "1807": ".\"<|",
  "1808": " stuck",
  "1809": "cked",
  "1810": " cour",
  "1811": " fruit",
  "1812": " buck",
  "1813": " min",
  "1814": " att",
  "1815": " teac",
  "1816": " school",
  "1817": " brown",
  "1818": " hoped",
  "1819": "asket",
  "1820": "iting",
  "1821": " suddenly",
  "1822": " basket",
  "1823": "vel",
  "1824": " feels",
  "1825": "?â",
  "1826": " chair",
  "1827": " eating",
  "1828": " town",
  "1829": " Emma",
  "1830": " course",
  "1831": " cray",
  "1832": " clapped",
  "1833": " coll",
  "1834": " gentle",
  "1835": " fairy",
  "1836": "pping",
  "1837": " butt",
  "1838": " pack",
  "1839": "ventually",
  "1840": " stand",
  "1841": "ier",
  "1842": " drove",
  "1843": "ors",
  "1844": " Jimmy",
  "1845": " pushed",
  "1846": "br",
  "1847": "Ben",
  "1848": "issed",
  "1849": " welcome",
  "1850": " swings",
  "1851": " without",
  "1852": " Inside",
  "1853": " higher",
  "1854": " today",
  "1855": " neigh",
  "1856": " pocket",
  "1857": "orrow",
  "1858": " hit",
  "1859": " teacher",
  "1860": " neighb",
  "1861": " pers",
  "1862": "ord",
  "1863": " smo",
  "1864": " games",
  "1865": "ourn",
  "1866": " piece",
  "1867": "ract",
  "1868": " cheered",
  "1869": " wings",
  "1870": " forget",
  "1871": " ben",
  "1872": " explained",
  "1873": " journ",
  "1874": " yard",
  "1875": " longer",
  "1876": " free",
  "1877": "ible",
  "1878": " corn",
  "1879": " accident",
  "1880": "ead",
  "1881": "ho",
  "1882": " dry",
  "1883": " along",
  "1884": "umb",
  "1885": " Mum",
  "1886": "ment",
  "1887": " Their",
  "1888": "cy",
  "1889": "ek",
  "1890": " noises",
  "1891": "itting",
  "1892": " neck",
  "1893": " sang",
  "1894": " inst",
  "1895": " late",
  "1896": " happen",
  "1897": " throw",
  "1898": "Anna",
  "1899": " hugs",
  "1900": " young",
  "1901": " turns",
  "1902": " stories",
  "1903": " shoes",
  "1904": "phant",
  "1905": " lon",
  "1906": " miss",
  "1907": " adventures",
  "1908": " singing",
  "1909": " On",
  "1910": " trou",
  "1911": " well",
  "1912": " sea",
  "1913": " lunch",
  "1914": " apple",
  "1915": " upset",
  "1916": " lonely",
  "1917": " key",
  "1918": "ches",
  "1919": " O",
  "1920": " belong",
  "1921": "bby",
  "1922": "oun",
  "1923": " dist",
  "1924": " secret",
  "1925": " street",
  "1926": " plac",
  "1927": " elephant",
  "1928": " tom",
  "1929": " wish",
  "1930": " fence",
  "1931": " mine",
  "1932": "ountain",
  "1933": " mat",
  "1934": " shap",
  "1935": " shook",
  "1936": " exploring",
  "1937": " moved",
  "1938": " purp",
  "1939": " year",
  "1940": "aughty",
  "1941": " nearby",
  "1942": " naughty",
  "1943": " soup",
  "1944": " star",
  "1945": " shop",
  "1946": " wise",
  "1947": " stars",
  "1948": " owl",
  "1949": " bring",
  "1950": "fused",
  "1951": " jar",
  "1952": "bow",
  "1953": "ocked",
  "1954": " Fluffy",
  "1955": " inv",
  "1956": " exp",
  "1957": " whe",
  "1958": "yard",
  "1959": " caught",
  "1960": "Do",
  "1961": "ward",
  "1962": " backyard",
  "1963": " seemed",
  "1964": " Tw",
  "1965": "ail",
  "1966": " es",
  "1967": " relie",
  "1968": " dropped",
  "1969": " ph",
  "1970": " rocks",
  "1971": "aughter",
  "1972": "llo",
  "1973": " drink",
  "1974": "ts",
  "1975": " bucket",
  "1976": " des",
  "1977": "adow",
  "1978": "ces",
  "1979": " purple",
  "1980": " swam",
  "1981": " farm",
  "1982": " resp",
  "1983": " Thank",
  "1984": " taking",
  "1985": " mail",
  "1986": " orange",
  "1987": " though",
  "1988": "ions",
  "1989": " shapes",
  "1990": "sy",
  "1991": "!\"<|",
  "1992": " Sammy",
  "1993": " past",
  "1994": "col",
  "1995": " cow",
  "1996": " ve",
  "1997": " woke",
  "1998": " bench",
  "1999": " sounds",
  "2000": " af",
  "2001": "ung",
  "2002": "ity",
  "2003": " wondered",
  "2004": " busy",
  "2005": " fit",
  "2006": " tiny",
  "2007": " ob",
  "2008": " Later",
  "2009": " nose",
  "2010": " sitting",
  "2011": " nest",
  "2012": " rainbow",
  "2013": "ese",
  "2014": " daughter",
  "2015": " takes",
  "2016": " mark",
  "2017": " mad",
  "2018": "fish",
  "2019": " cou",
  "2020": " kite",
  "2021": "to",
  "2022": "read",
  "2023": " holding",
  "2024": " nothing",
  "2025": " comes",
  "2026": " juice",
  "2027": " arms",
  "2028": "thday",
  "2029": " pig",
  "2030": "og",
  "2031": " coat",
  "2032": "ining",
  "2033": " cir",
  "2034": " With",
  "2035": " branch",
  "2036": "raid",
  "2037": " relieved",
  "2038": "pper",
  "2039": "ose",
  "2040": " afraid",
  "2041": "cing",
  "2042": "idge",
  "2043": " driver",
  "2044": " mil",
  "2045": " forever",
  "2046": "vered",
  "2047": " spoon",
  "2048": " Ell",
  "2049": "Sara",
  "2050": " cute",
  "2051": " carry",
  "2052": " sick",
  "2053": " boun",
  "2054": "ale",
  "2055": " lift",
  "2056": "sting",
  "2057": " peace",
  "2058": " promise",
  "2059": "Of",
  "2060": "ours",
  "2061": " huge",
  "2062": " act",
  "2063": " touched",
  "2064": " patient",
  "2065": "unt",
  "2066": " king",
  "2067": " round",
  "2068": "cer",
  "2069": "sc",
  "2070": " hello",
  "2071": " Come",
  "2072": " birthday",
  "2073": " fing",
  "2074": " letter",
  "2075": " grab",
  "2076": " intere",
  "2077": " exciting",
  "2078": "let",
  "2079": " sunny",
  "2080": " cheese",
  "2081": "Tim",
  "2082": " Tweet",
  "2083": "eth",
  "2084": " onto",
  "2085": " bush",
  "2086": " laughing",
  "2087": " days",
  "2088": "board",
  "2089": " journey",
  "2090": " gigg",
  "2091": " band",
  "2092": " creature",
  "2093": " Al",
  "2094": " disco",
  "2095": " Wh",
  "2096": "ittens",
  "2097": " bread",
  "2098": "Hey",
  "2099": "arp",
  "2100": " ret",
  "2101": "ped",
  "2102": " imag",
  "2103": "shine",
  "2104": " life",
  "2105": " kick",
  "2106": "gged",
  "2107": " hope",
  "2108": " power",
  "2109": " craw",
  "2110": " Jenny",
  "2111": " shell",
  "2112": " cozy",
  "2113": " swimming",
  "2114": " inc",
  "2115": " bottle",
  "2116": " mist",
  "2117": " sharp",
  "2118": " wra",
  "2119": " suc",
  "2120": " comfort",
  "2121": "gg",
  "2122": "ness",
  "2123": " instead",
  "2124": " whist",
  "2125": " milk",
  "2126": " watching",
  "2127": " return",
  "2128": " ear",
  "2129": " Emily",
  "2130": " spin",
  "2131": "alm",
  "2132": " accidentally",
  "2133": " eas",
  "2134": " sunshine",
  "2135": "ten",
  "2136": " cave",
  "2137": "pa",
  "2138": " spo",
  "2139": " puts",
  "2140": " lucky",
  "2141": " talked",
  "2142": " honey",
  "2143": " pudd",
  "2144": " pointed",
  "2145": " gives",
  "2146": " collect",
  "2147": " gather",
  "2148": "itch",
  "2149": " road",
  "2150": " ent",
  "2151": " smiling",
  "2152": " bought",
  "2153": " anyone",
  "2154": " hor",
  "2155": " searched",
  "2156": " later",
  "2157": " Ch",
  "2158": " ce",
  "2159": " fan",
  "2160": " sandw",
  "2161": "ball",
  "2162": "round",
  "2163": "itten",
  "2164": " apples",
  "2165": "els",
  "2166": "blem",
  "2167": "irt",
  "2168": " problem",
  "2169": " meet",
  "2170": "ize",
  "2171": " mach",
  "2172": " wom",
  "2173": " loves",
  "2174": " interesting",
  "2175": "€œI",
  "2176": "Good",
  "2177": " woman",
  "2178": " plane",
  "2179": " kiss",
  "2180": " pres",
  "2181": " healthy",
  "2182": "eb",
  "2183": " pile",
  "2184": " tasty",
  "2185": " ducks",
  "2186": " vill",
  "2187": " wide",
  "2188": "ove",
  "2189": "ont",
  "2190": "amed",
  "2191": "ub",
  "2192": "aur",
  "2193": " adm",
  "2194": " eag",
  "2195": " spid",
  "2196": " clever",
  "2197": " crayons",
  "2198": " prot",
  "2199": " matter",
  "2200": " trouble",
  "2201": "erly",
  "2202": "ndpa",
  "2203": " zoom",
  "2204": " clouds",
  "2205": "owed",
  "2206": " storm",
  "2207": " person",
  "2208": " path",
  "2209": "cks",
  "2210": " pill",
  "2211": " feather",
  "2212": " rope",
  "2213": " pop",
  "2214": " shining",
  "2215": " protect",
  "2216": " smelled",
  "2217": " front",
  "2218": " hon",
  "2219": " button",
  "2220": " How",
  "2221": " pract",
  "2222": " spotted",
  "2223": " screamed",
  "2224": " zoo",
  "2225": " minut",
  "2226": " present",
  "2227": "Come",
  "2228": " ap",
  "2229": " mud",
  "2230": " val",
  "2231": " respect",
  "2232": " saf",
  "2233": " Somet",
  "2234": " danced",
  "2235": " cheer",
  "2236": " organ",
  "2237": " par",
  "2238": " quest",
  "2239": "ond",
  "2240": " appeared",
  "2241": " Jake",
  "2242": " which",
  "2243": " puzz",
  "2244": " seat",
  "2245": " teach",
  "2246": " myster",
  "2247": " snowman",
  "2248": "isa",
  "2249": " snake",
  "2250": " thin",
  "2251": "ert",
  "2252": " wild",
  "2253": " asleep",
  "2254": " lovely",
  "2255": " sur",
  "2256": " answer",
  "2257": "epend",
  "2258": " Together",
  "2259": " wearing",
  "2260": " Mittens",
  "2261": " gently",
  "2262": " neighbor",
  "2263": "oose",
  "2264": " bark",
  "2265": " horse",
  "2266": " giant",
  "2267": " St",
  "2268": " places",
  "2269": " goes",
  "2270": " whole",
  "2271": " search",
  "2272": " Ann",
  "2273": " splas",
  "2274": "up",
  "2275": " corner",
  "2276": " impress",
  "2277": "ular",
  "2278": " dirt",
  "2279": " med",
  "2280": " shr",
  "2281": "een",
  "2282": " tries",
  "2283": " trip",
  "2284": " confused",
  "2285": " live",
  "2286": " mind",
  "2287": " di",
  "2288": "ato",
  "2289": " rolled",
  "2290": " card",
  "2291": " slid",
  "2292": " tasted",
  "2293": "nic",
  "2294": "cean",
  "2295": " ash",
  "2296": " ocean",
  "2297": " supp",
  "2298": " forgive",
  "2299": " picnic",
  "2300": " Go",
  "2301": " ca",
  "2302": " rude",
  "2303": " machine",
  "2304": " spent",
  "2305": " drive",
  "2306": " teeth",
  "2307": " ser",
  "2308": "ssed",
  "2309": "itty",
  "2310": "Jo",
  "2311": " phone",
  "2312": " oven",
  "2313": " pan",
  "2314": " pour",
  "2315": " last",
  "2316": " Le",
  "2317": "la",
  "2318": " calm",
  "2319": " pretended",
  "2320": " delight",
  "2321": " Lisa",
  "2322": " cookie",
  "2323": " furry",
  "2324": " spider",
  "2325": "izz",
  "2326": " feet",
  "2327": " faces",
  "2328": "unk",
  "2329": " lay",
  "2330": " worm",
  "2331": " ring",
  "2332": " rec",
  "2333": "umber",
  "2334": " helpful",
  "2335": " lad",
  "2336": " Be",
  "2337": " eventually",
  "2338": " wip",
  "2339": " chick",
  "2340": " wave",
  "2341": " mountain",
  "2342": " sal",
  "2343": " ban",
  "2344": " emb",
  "2345": " talking",
  "2346": "ones",
  "2347": " rob",
  "2348": " fold",
  "2349": " shy",
  "2350": " cart",
  "2351": " tomorrow",
  "2352": " sel",
  "2353": " chocol",
  "2354": " tid",
  "2355": " spread",
  "2356": " village",
  "2357": " Peter",
  "2358": "arge",
  "2359": "ife",
  "2360": " remind",
  "2361": " ign",
  "2362": " bubble",
  "2363": " tun",
  "2364": " coin",
  "2365": " foot",
  "2366": " couch",
  "2367": " write",
  "2368": " push",
  "2369": " ladder",
  "2370": " building",
  "2371": " fighting",
  "2372": " smooth",
  "2373": " Sometimes",
  "2374": " treats",
  "2375": " wore",
  "2376": " chased",
  "2377": " tool",
  "2378": "ighed",
  "2379": " blew",
  "2380": " stret",
  "2381": "lex",
  "2382": "arra",
  "2383": " bugs",
  "2384": "per",
  "2385": " embarra",
  "2386": "My",
  "2387": " hiding",
  "2388": " pool",
  "2389": " cross",
  "2390": " '",
  "2391": " waiting",
  "2392": "oph",
  "2393": " knee",
  "2394": " robot",
  "2395": " neckl",
  "2396": " step",
  "2397": " puddle",
  "2398": "mo",
  "2399": " finish",
  "2400": " shelf",
  "2401": " bell",
  "2402": " coo",
  "2403": "not",
  "2404": "als",
  "2405": " songs",
  "2406": " stir",
  "2407": "ator",
  "2408": " whenever",
  "2409": " selfish",
  "2410": " ant",
  "2411": " maybe",
  "2412": " cannot",
  "2413": " string",
  "2414": " stra",
  "2415": " chocolate",
  "2416": " Everywhere",
  "2417": "ult",
  "2418": " sol",
  "2419": " taste",
  "2420": " spe",
  "2421": " rep",
  "2422": " Teddy",
  "2423": " hum",
  "2424": " ple",
  "2425": " large",
  "2426": " paw",
  "2427": " net",
  "2428": "box",
  "2429": " sack",
  "2430": " leaf",
  "2431": " scar",
  "2432": " fixed",
  "2433": "lebr",
  "2434": " barked",
  "2435": " tidy",
  "2436": "umpy",
  "2437": " banan",
  "2438": " wash",
  "2439": " spray",
  "2440": " stone",
  "2441": " celebr",
  "2442": "old",
  "2443": " Sus",
  "2444": " gen",
  "2445": " cloth",
  "2446": "Please",
  "2447": " Bu",
  "2448": " crab",
  "2449": " peaceful",
  "2450": " colour",
  "2451": "St",
  "2452": "nny",
  "2453": "ungle",
  "2454": " Please",
  "2455": " hel",
  "2456": "ush",
  "2457": "ird",
  "2458": "oin",
  "2459": " missed",
  "2460": " deter",
  "2461": " jungle",
  "2462": "iger",
  "2463": "arm",
  "2464": " landed",
  "2465": " determ",
  "2466": " forward",
  "2467": " embarrassed",
  "2468": " Some",
  "2469": " necklace",
  "2470": " honest",
  "2471": " jumping",
  "2472": "airs",
  "2473": "elly",
  "2474": " bat",
  "2475": " decor",
  "2476": "dge",
  "2477": " trust",
  "2478": " hears",
  "2479": " moon",
  "2480": "orry",
  "2481": " sticks",
  "2482": " TV",
  "2483": " shirt",
  "2484": " creative",
  "2485": " sharing",
  "2486": "Joh",
  "2487": "aking",
  "2488": " tea",
  "2489": "most",
  "2490": " knocked",
  "2491": " carrots",
  "2492": " disappoin",
  "2493": " success",
  "2494": " Don",
  "2495": " meadow",
  "2496": "ying",
  "2497": " Even",
  "2498": "getable",
  "2499": " whis",
  "2500": " stood",
  "2501": " gener",
  "2502": " vegetable",
  "2503": " While",
  "2504": " bal",
  "2505": " meant",
  "2506": " legs",
  "2507": " tightly",
  "2508": " Little",
  "2509": " breath",
  "2510": " plate",
  "2511": " ashamed",
  "2512": " almost",
  "2513": "ned",
  "2514": " emp",
  "2515": " sour",
  "2516": " gray",
  "2517": "dle",
  "2518": " grew",
  "2519": " tells",
  "2520": " empty",
  "2521": " pillow",
  "2522": " Z",
  "2523": "ground",
  "2524": "ony",
  "2525": " gas",
  "2526": " splash",
  "2527": " whistle",
  "2528": " Mummy",
  "2529": "ian",
  "2530": " understood",
  "2531": " sheep",
  "2532": " ber",
  "2533": " Johnny",
  "2534": " carried",
  "2535": "den",
  "2536": " yelled",
  "2537": " Why",
  "2538": " lem",
  "2539": "ustr",
  "2540": "arl",
  "2541": " nods",
  "2542": "vous",
  "2543": " save",
  "2544": " police",
  "2545": " disappointed",
  "2546": " snacks",
  "2547": " hours",
  "2548": " nut",
  "2549": "ital",
  "2550": " jew",
  "2551": " these",
  "2552": " Alice",
  "2553": "hin",
  "2554": "ork",
  "2555": " hosp",
  "2556": "ets",
  "2557": " Bo",
  "2558": " sparkly",
  "2559": " gold",
  "2560": "Where",
  "2561": "erp",
  "2562": " hospital",
  "2563": " kitten",
  "2564": "Sam",
  "2565": " ship",
  "2566": " pay",
  "2567": "ina",
  "2568": " bored",
  "2569": "urse",
  "2570": " line",
  "2571": " generous",
  "2572": " frustr",
  "2573": " test",
  "2574": " hidden",
  "2575": " taught",
  "2576": "John",
  "2577": " standing",
  "2578": " rad",
  "2579": " scarf",
  "2580": " Leo",
  "2581": "iff",
  "2582": " chew",
  "2583": " returned",
  "2584": " minutes",
  "2585": " pizz",
  "2586": " knowing",
  "2587": " group",
  "2588": " hur",
  "2589": " plants",
  "2590": " easy",
  "2591": " blow",
  "2592": " bedroom",
  "2593": " polite",
  "2594": " mysterious",
  "2595": " waves",
  "2596": " glass",
  "2597": " sighed",
  "2598": " Rex",
  "2599": " shore",
  "2600": " pri",
  "2601": " seed",
  "2602": " wolf",
  "2603": " seek",
  "2604": " determined",
  "2605": "kin",
  "2606": "Stop",
  "2607": " puzzle",
  "2608": " powerful",
  "2609": " thankful",
  "2610": "fl",
  "2611": " class",
  "2612": " ner",
  "2613": " pir",
  "2614": " sandwich",
  "2615": " fig",
  "2616": " Br",
  "2617": " sleepy",
  "2618": " prince",
  "2619": " passed",
  "2620": " drew",
  "2621": "'d",
  "2622": " Bl",
  "2623": " finger",
  "2624": " jelly",
  "2625": " nervous",
  "2626": " pizza",
  "2627": " frustrated",
  "2628": " spicy",
  "2629": " gun",
  "2630": " spoil",
  "2631": " match",
  "2632": " fancy",
  "2633": " messy",
  "2634": "osaur",
  "2635": "work",
  "2636": " gate",
  "2637": " bridge",
  "2638": " lock",
  "2639": " Mark",
  "2640": " kissed",
  "2641": " tick",
  "2642": "aul",
  "2643": " closet",
  "2644": " fear",
  "2645": " reg",
  "2646": "af",
  "2647": " feed",
  "2648": " mot",
  "2649": " sold",
  "2650": " wis",
  "2651": " Susie",
  "2652": " gathered",
  "2653": " av",
  "2654": " excite",
  "2655": " poor",
  "2656": " circ",
  "2657": "ote",
  "2658": " hang",
  "2659": " caterp",
  "2660": " caterpill",
  "2661": " esc",
  "2662": " flag",
  "2663": "oop",
  "2664": " pin",
  "2665": " grumpy",
  "2666": " van",
  "2667": "iddle",
  "2668": " dinosaur",
  "2669": "ella",
  "2670": " yourself",
  "2671": "ano",
  "2672": "issors",
  "2673": "uce",
  "2674": " answered",
  "2675": " cries",
  "2676": " week",
  "2677": "Are",
  "2678": " often",
  "2679": "itter",
  "2680": " twirl",
  "2681": "selves",
  "2682": " chest",
  "2683": "sist",
  "2684": " scissors",
  "2685": " hopping",
  "2686": " tears",
  "2687": "pack",
  "2688": "gly",
  "2689": "Sorry",
  "2690": "mb",
  "2691": " mummy",
  "2692": " ugly",
  "2693": " burn",
  "2694": " cand",
  "2695": "ensive",
  "2696": " deer",
  "2697": " drop",
  "2698": "illed",
  "2699": " fil",
  "2700": " excitement",
  "2701": "era",
  "2702": "izzy",
  "2703": " caterpillar",
  "2704": " lit",
  "2705": " working",
  "2706": " middle",
  "2707": " expensive",
  "2708": " scr",
  "2709": " saved",
  "2710": " taken",
  "2711": " ok",
  "2712": " true",
  "2713": " wagged",
  "2714": " ones",
  "2715": " pleased",
  "2716": " crown",
  "2717": " spend",
  "2718": " boring",
  "2719": " picks",
  "2720": " leg",
  "2721": "que",
  "2722": "oof",
  "2723": "ugar",
  "2724": " vase",
  "2725": " tent",
  "2726": " asking",
  "2727": "body",
  "2728": "ual",
  "2729": " brush",
  "2730": " tie",
  "2731": "ates",
  "2732": " vegetables",
  "2733": "ecially",
  "2734": " giggled",
  "2735": " boss",
  "2736": "ete",
  "2737": "Who",
  "2738": " mistake",
  "2739": " cage",
  "2740": "ser",
  "2741": " gets",
  "2742": "light",
  "2743": " rocket",
  "2744": "There",
  "2745": " cap",
  "2746": " mir",
  "2747": " comfortable",
  "2748": " sugar",
  "2749": " eld",
  "2750": " stuff",
  "2751": " packed",
  "2752": " dancing",
  "2753": "pecially",
  "2754": " especially",
  "2755": " Today",
  "2756": " wander",
  "2757": " clown",
  "2758": " medic",
  "2759": " number",
  "2760": " press",
  "2761": " sight",
  "2762": " Dan",
  "2763": " knight",
  "2764": "ggs",
  "2765": "ots",
  "2766": " fruits",
  "2767": "iness",
  "2768": " Eventually",
  "2769": " eggs",
  "2770": " lying",
  "2771": " drum",
  "2772": " pus",
  "2773": " Bobby",
  "2774": " fake",
  "2775": " dest",
  "2776": "ror",
  "2777": " medicine",
  "2778": " walks",
  "2779": " distance",
  "2780": "aged",
  "2781": " glue",
  "2782": " splashed",
  "2783": " sweetie",
  "2784": " bake",
  "2785": " flut",
  "2786": " bone",
  "2787": " Blue",
  "2788": " No",
  "2789": " drawing",
  "2790": " moving",
  "2791": " disappeared",
  "2792": " U",
  "2793": " OK",
  "2794": " lead",
  "2795": " smelly",
  "2796": " clap",
  "2797": " become",
  "2798": " lemon",
  "2799": " change",
  "2800": " Kitty",
  "2801": " pray",
  "2802": " feathers",
  "2803": "ha",
  "2804": " moms",
  "2805": " lose",
  "2806": " If",
  "2807": " mov",
  "2808": " licked",
  "2809": " calling",
  "2810": " twist",
  "2811": " dogs",
  "2812": " bathroom",
  "2813": " playground",
  "2814": "ory",
  "2815": "yal",
  "2816": " fis",
  "2817": " lazy",
  "2818": " roar",
  "2819": " elderly",
  "2820": " weak",
  "2821": " incred",
  "2822": " cri",
  "2823": "Now",
  "2824": " body",
  "2825": " horn",
  "2826": " gar",
  "2827": "?\".",
  "2828": " exam",
  "2829": " crack",
  "2830": ",â",
  "2831": " questions",
  "2832": " add",
  "2833": " ext",
  "2834": " wrote",
  "2835": " yog",
  "2836": " yours",
  "2837": " noisy",
  "2838": " father",
  "2839": " mirror",
  "2840": "uggest",
  "2841": " mic",
  "2842": " nod",
  "2843": " suggest",
  "2844": " Fred",
  "2845": "ating",
  "2846": "elp",
  "2847": " Pete",
  "2848": "eez",
  "2849": " fluffy",
  "2850": " skipped",
  "2851": " ed",
  "2852": " wheel",
  "2853": " eager",
  "2854": " loyal",
  "2855": " lamp",
  "2856": " dish",
  "2857": " clear",
  "2858": " famous",
  "2859": "land",
  "2860": " End",
  "2861": " dig",
  "2862": " ruined",
  "2863": " stones",
  "2864": "ination",
  "2865": " rich",
  "2866": " rare",
  "2867": " ord",
  "2868": " tape",
  "2869": " Mandy",
  "2870": " sell",
  "2871": " drank",
  "2872": " content",
  "2873": " figure",
  "2874": " queen",
  "2875": " Ellie",
  "2876": " incredible",
  "2877": " march",
  "2878": " glow",
  "2879": " map",
  "2880": " shows",
  "2881": " rid",
  "2882": "ti",
  "2883": " check",
  "2884": " juicy",
  "2885": " soap",
  "2886": " covered",
  "2887": " ind",
  "2888": " balls",
  "2889": " sailed",
  "2890": " relax",
  "2891": " aw",
  "2892": " shoot",
  "2893": "illi",
  "2894": "hip",
  "2895": " team",
  "2896": "ately",
  "2897": " measure",
  "2898": " decide",
  "2899": " realised",
  "2900": "umbled",
  "2901": " discovered",
  "2902": " coins",
  "2903": " needs",
  "2904": " borrow",
  "2905": " swan",
  "2906": " straw",
  "2907": "fic",
  "2908": " adventur",
  "2909": "cept",
  "2910": "Help",
  "2911": " cleaned",
  "2912": " branches",
  "2913": " towel",
  "2914": " boys",
  "2915": " extra",
  "2916": " ham",
  "2917": "asing",
  "2918": "Be",
  "2919": "imp",
  "2920": " Ella",
  "2921": "Well",
  "2922": " board",
  "2923": " chicken",
  "2924": " barn",
  "2925": " mod",
  "2926": " tiger",
  "2927": " motor",
  "2928": " adventurous",
  "2929": " tag",
  "2930": " joke",
  "2931": " diffic",
  "2932": " offered",
  "2933": " fine",
  "2934": "keep",
  "2935": " balance",
  "2936": " lifted",
  "2937": " Brown",
  "2938": "ique",
  "2939": " bubbles",
  "2940": " colourful",
  "2941": " Mar",
  "2942": " frown",
  "2943": " turt",
  "2944": " eye",
  "2945": " thick",
  "2946": " Rose",
  "2947": " difficult",
  "2948": " bottom",
  "2949": " track",
  "2950": " toug",
  "2951": "alous",
  "2952": " organized",
  "2953": " cover",
  "2954": " happening",
  "2955": " unique",
  "2956": " jealous",
  "2957": "rag",
  "2958": " dolp",
  "2959": " hose",
  "2960": "port",
  "2961": " knife",
  "2962": " Bella",
  "2963": " weird",
  "2964": " island",
  "2965": " Bobo",
  "2966": "cil",
  "2967": " garage",
  "2968": " fright",
  "2969": " managed",
  "2970": "imed",
  "2971": " hurts",
  "2972": " pencil",
  "2973": " word",
  "2974": "ject",
  "2975": " crawled",
  "2976": " cost",
  "2977": " learning",
  "2978": " arg",
  "2979": "Me",
  "2980": " circle",
  "2981": " Mrs",
  "2982": " saying",
  "2983": " kindness",
  "2984": "ured",
  "2985": " berries",
  "2986": " once",
  "2987": " tough",
  "2988": "olog",
  "2989": " mighty",
  "2990": " balloons",
  "2991": " pointing",
  "2992": " chase",
  "2993": " bald",
  "2994": " favour",
  "2995": "ready",
  "2996": " wand",
  "2997": "ddy",
  "2998": " ter",
  "2999": "keeper",
  "3000": "lies",
  "3001": " shake",
  "3002": "iv",
  "3003": " jewel",
  "3004": " louder",
  "3005": "ipper",
  "3006": " added",
  "3007": "ages",
  "3008": " batter",
  "3009": " sil",
  "3010": " hunt",
  "3011": " guit",
  "3012": " harder",
  "3013": " guess",
  "3014": " apolog",
  "3015": " unus",
  "3016": " edge",
  "3017": "head",
  "3018": " already",
  "3019": " four",
  "3020": " ang",
  "3021": " Tweety",
  "3022": " spun",
  "3023": " favourite",
  "3024": " fool",
  "3025": " norm",
  "3026": " whale",
  "3027": "ipp",
  "3028": " unusual",
  "3029": " libr",
  "3030": " valu",
  "3031": "rage",
  "3032": "alk",
  "3033": " enjoying",
  "3034": " dizzy",
  "3035": "aw",
  "3036": " hats",
  "3037": " pump",
  "3038": " belonged",
  "3039": " grace",
  "3040": " wrapped",
  "3041": " cheerful",
  "3042": " smoke",
  "3043": "-up",
  "3044": "uggled",
  "3045": " impressed",
  "3046": " strawber",
  "3047": " Mike",
  "3048": " trucks",
  "3049": " record",
  "3050": " giving",
  "3051": " sword",
  "3052": " market",
  "3053": " grown",
  "3054": " ref",
  "3055": " Grandpa",
  "3056": " laughs",
  "3057": " trunk",
  "3058": " normal",
  "3059": "anged",
  "3060": " Fr",
  "3061": " grand",
  "3062": " hero",
  "3063": " ears",
  "3064": " guitar",
  "3065": " loudly",
  "3066": "ola",
  "3067": "illiant",
  "3068": " turtle",
  "3069": " harm",
  "3070": "Lila",
  "3071": " banana",
  "3072": "Here",
  "3073": " proudly",
  "3074": " boxes",
  "3075": " scare",
  "3076": "ature",
  "3077": " brilliant",
  "3078": "ilt",
  "3079": " choose",
  "3080": " brothers",
  "3081": "ery",
  "3082": " circles",
  "3083": " whisp",
  "3084": " terri",
  "3085": " bossy",
  "3086": " dreamed",
  "3087": " against",
  "3088": " escape",
  "3089": "ym",
  "3090": " goat",
  "3091": " invited",
  "3092": " skin",
  "3093": " cab",
  "3094": " helps",
  "3095": " Dave",
  "3096": "gy",
  "3097": "cient",
  "3098": " compet",
  "3099": " pil",
  "3100": "ipe",
  "3101": " painting",
  "3102": " means",
  "3103": " melt",
  "3104": " frightened",
  "3105": " accept",
  "3106": " Soph",
  "3107": "fast",
  "3108": " pee",
  "3109": " flash",
  "3110": " safely",
  "3111": " depend",
  "3112": " buttons",
  "3113": " slipped",
  "3114": " design",
  "3115": " stubb",
  "3116": " birdie",
  "3117": " jack",
  "3118": " wrap",
  "3119": " valuable",
  "3120": " cabin",
  "3121": " crayon",
  "3122": " wake",
  "3123": " stream",
  "3124": " walls",
  "3125": " happiness",
  "3126": " breakfast",
  "3127": "ouses",
  "3128": " log",
  "3129": "erry",
  "3130": " ancient",
  "3131": "edient",
  "3132": " study",
  "3133": " successful",
  "3134": " clay",
  "3135": "emo",
  "3136": "orge",
  "3137": " knows",
  "3138": " foolish",
  "3139": " toast",
  "3140": " falls",
  "3141": " fridge",
  "3142": "ye",
  "3143": " lean",
  "3144": " Nemo",
  "3145": " stubborn",
  "3146": " unl",
  "3147": " My",
  "3148": " nicely",
  "3149": "atch",
  "3150": " shape",
  "3151": "apping",
  "3152": "omed",
  "3153": " fier",
  "3154": " cudd",
  "3155": " rough",
  "3156": " dreams",
  "3157": " movie",
  "3158": " space",
  "3159": " houses",
  "3160": " city",
  "3161": " nosy",
  "3162": " bloom",
  "3163": " delicate",
  "3164": " Lola",
  "3165": " obedient",
  "3166": " fierce",
  "3167": " tomato",
  "3168": " office",
  "3169": " fat",
  "3170": " grandpa",
  "3171": "ado",
  "3172": "az",
  "3173": "laimed",
  "3174": " icy",
  "3175": " competit",
  "3176": " suggested",
  "3177": " shark",
  "3178": " dead",
  "3179": " notice",
  "3180": " wagon",
  "3181": "pes",
  "3182": " exclaimed",
  "3183": " mem",
  "3184": " kinds",
  "3185": " mixed",
  "3186": " wiped",
  "3187": " cher",
  "3188": " useful",
  "3189": " poured",
  "3190": " shells",
  "3191": "€œLet",
  "3192": "uth",
  "3193": " stri",
  "3194": " lights",
  "3195": " locked",
  "3196": " sounded",
  "3197": " tools",
  "3198": " thu",
  "3199": " stove",
  "3200": " excitedly",
  "3201": " explored",
  "3202": " aunt",
  "3203": "wards",
  "3204": " egg",
  "3205": " frag",
  "3206": "eorge",
  "3207": " rose",
  "3208": " son",
  "3209": "oppy",
  "3210": " shadow",
  "3211": " times",
  "3212": " cro",
  "3213": " enc",
  "3214": " bags",
  "3215": " fountain",
  "3216": "ention",
  "3217": "oot",
  "3218": " themselves",
  "3219": " stumbled",
  "3220": " bushes",
  "3221": "arry",
  "3222": " weal",
  "3223": "ache",
  "3224": "dom",
  "3225": " low",
  "3226": " showing",
  "3227": " spoiled",
  "3228": "rell",
  "3229": " fingers",
  "3230": " perform",
  "3231": " lab",
  "3232": " above",
  "3233": "vice",
  "3234": " thoughtful",
  "3235": " resc",
  "3236": " Ducky",
  "3237": " independ",
  "3238": " smaller",
  "3239": "kn",
  "3240": " witch",
  "3241": " dough",
  "3242": "na",
  "3243": " fragile",
  "3244": " dependable",
  "3245": " raced",
  "3246": " jog",
  "3247": "ray",
  "3248": "arth",
  "3249": " Whenever",
  "3250": " playful",
  "3251": "inal",
  "3252": " seem",
  "3253": " helm",
  "3254": " spinning",
  "3255": " eng",
  "3256": " tele",
  "3257": "corn",
  "3258": " brightly",
  "3259": " clock",
  "3260": "ines",
  "3261": " print",
  "3262": " stretch",
  "3263": " rode",
  "3264": " parrot",
  "3265": "ormous",
  "3266": " delighted",
  "3267": " built",
  "3268": " admired",
  "3269": " law",
  "3270": " enormous",
  "3271": " Sn",
  "3272": " kicked",
  "3273": " roof",
  "3274": " counted",
  "3275": " jam",
  "3276": " swe",
  "3277": " rat",
  "3278": " practice",
  "3279": "reen",
  "3280": " orig",
  "3281": " ways",
  "3282": " changed",
  "3283": " shone",
  "3284": " sunfl",
  "3285": " cop",
  "3286": " reminded",
  "3287": " twig",
  "3288": " acorn",
  "3289": "ither",
  "3290": " cam",
  "3291": "ience",
  "3292": " sniff",
  "3293": " zip",
  "3294": "eeze",
  "3295": " hammer",
  "3296": " independent",
  "3297": " Your",
  "3298": " using",
  "3299": " Cl",
  "3300": " bitter",
  "3301": " handed",
  "3302": " whispered",
  "3303": " hoop",
  "3304": "known",
  "3305": "mbrell",
  "3306": " chose",
  "3307": " chir",
  "3308": "anut",
  "3309": " loll",
  "3310": "!\".",
  "3311": " jolly",
  "3312": " umbrell",
  "3313": " cone",
  "3314": " tunn",
  "3315": " solve",
  "3316": " stronger",
  "3317": " bees",
  "3318": " serious",
  "3319": "ipop",
  "3320": " original",
  "3321": " steal",
  "3322": " tummy",
  "3323": " beak",
  "3324": " terrible",
  "3325": " brace",
  "3326": " mis",
  "3327": "€œYes",
  "3328": " Bill",
  "3329": " popcorn",
  "3330": " fre",
  "3331": " lollipop",
  "3332": " painted",
  "3333": " boats",
  "3334": " allowed",
  "3335": " hairy",
  "3336": "ict",
  "3337": " moder",
  "3338": "iable",
  "3339": " sauce",
  "3340": " cleaning",
  "3341": " George",
  "3342": " unknown",
  "3343": " leaving",
  "3344": " dust",
  "3345": " gasped",
  "3346": " finding",
  "3347": " joined",
  "3348": " guard",
  "3349": " salad",
  "3350": " potato",
  "3351": " bean",
  "3352": "het",
  "3353": " pumpkin",
  "3354": "iew",
  "3355": " Toby",
  "3356": " picking",
  "3357": " clum",
  "3358": "inary",
  "3359": " dove",
  "3360": "anger",
  "3361": " bump",
  "3362": " half",
  "3363": " sink",
  "3364": "amond",
  "3365": " costum",
  "3366": "uring",
  "3367": " yet",
  "3368": "robe",
  "3369": " metal",
  "3370": " tank",
  "3371": " bounce",
  "3372": " reliable",
  "3373": " post",
  "3374": " tor",
  "3375": " view",
  "3376": " doesn",
  "3377": " those",
  "3378": " forth",
  "3379": "aghet",
  "3380": "aghetti",
  "3381": " diamond",
  "3382": " dolphin",
  "3383": " advice",
  "3384": " Once",
  "3385": "com",
  "3386": " hay",
  "3387": " barber",
  "3388": "pid",
  "3389": " modern",
  "3390": " rubb",
  "3391": " stamp",
  "3392": " thinking",
  "3393": " gem",
  "3394": " ing",
  "3395": " holds",
  "3396": "gu",
  "3397": "ebra",
  "3398": " pirate",
  "3399": "ugged",
  "3400": " marble",
  "3401": " create",
  "3402": "How",
  "3403": " regular",
  "3404": " ingred",
  "3405": " ingredient",
  "3406": " clumsy",
  "3407": " sleeping",
  "3408": " Kim",
  "3409": " searching",
  "3410": " stairs",
  "3411": " wealthy",
  "3412": " yarn",
  "3413": "See",
  "3414": " rushed",
  "3415": " stupid",
  "3416": " prep",
  "3417": "ilty",
  "3418": " telling",
  "3419": " spaghetti",
  "3420": " guilty",
  "3421": " cheap",
  "3422": " Pe",
  "3423": " peanut",
  "3424": " goose",
  "3425": " char",
  "3426": "€œWhat",
  "3427": "cu",
  "3428": " rub",
  "3429": " magn",
  "3430": "ations",
  "3431": " flex",
  "3432": " compass",
  "3433": " opens",
  "3434": " mask",
  "3435": " patch",
  "3436": " stat",
  "3437": " arrow",
  "3438": " zebra",
  "3439": " engine",
  "3440": "io",
  "3441": " thunder",
  "3442": " knock",
  "3443": " square",
  "3444": "illa",
  "3445": "eezed",
  "3446": "irsty",
  "3447": " angel",
  "3448": " cur",
  "3449": " Bear",
  "3450": " graceful",
  "3451": " camera",
  "3452": " umbrella",
  "3453": "cod",
  "3454": " driving",
  "3455": " bull",
  "3456": " crazy",
  "3457": "€�",
  "3458": " Ba",
  "3459": " shiver",
  "3460": " washed",
  "3461": " carrying",
  "3462": " stage",
  "3463": "isk",
  "3464": " popular",
  "3465": " beet",
  "3466": " dull",
  "3467": "-c",
  "3468": "umbers",
  "3469": " Polly",
  "3470": "€œIt",
  "3471": " missing",
  "3472": " sparkled",
  "3473": " friendship",
  "3474": " truth",
  "3475": "shion",
  "3476": " meal",
  "3477": " Sophie",
  "3478": "Go",
  "3479": " seeds",
  "3480": "fa",
  "3481": " flexible",
  "3482": " impressive",
  "3483": " sne",
  "3484": " tied",
  "3485": " pebble",
  "3486": "time",
  "3487": " careless",
  "3488": " library",
  "3489": " imagined",
  "3490": " comb",
  "3491": " fresh",
  "3492": " deliver",
  "3493": " nature",
  "3494": " shel",
  "3495": " ending",
  "3496": " patter",
  "3497": " destro",
  "3498": " jacket",
  "3499": " persist",
  "3500": " reward",
  "3501": " handle",
  "3502": "ision",
  "3503": " rubbed",
  "3504": " ingredients",
  "3505": " Ro",
  "3506": " dreaming",
  "3507": " shocked",
  "3508": " Alex",
  "3509": "ric",
  "3510": " prize",
  "3511": "oomy",
  "3512": " sudden",
  "3513": " crocod",
  "3514": " load",
  "3515": " enth",
  "3516": "ief",
  "3517": "ibb",
  "3518": " pige",
  "3519": " pattern",
  "3520": " compassion",
  "3521": " envel",
  "3522": " Next",
  "3523": " flashlight",
  "3524": " thirsty",
  "3525": " sadly",
  "3526": " encou",
  "3527": " stranger",
  "3528": "arsh",
  "3529": "ince",
  "3530": " enthus",
  "3531": " wheels",
  "3532": " desk",
  "3533": "€œLetâ",
  "3534": "ement",
  "3535": " Joey",
  "3536": " reading",
  "3537": " wire",
  "3538": " discover",
  "3539": " early",
  "3540": " mailbox",
  "3541": " fork",
  "3542": " suit",
  "3543": " numbers",
  "3544": " tem",
  "3545": " peeked",
  "3546": " Andy",
  "3547": " penny",
  "3548": " butterflies",
  "3549": "awn",
  "3550": " cryst",
  "3551": " spilled",
  "3552": " bracelet",
  "3553": " torn",
  "3554": " rug",
  "3555": " gum",
  "3556": " stops",
  "3557": "loo",
  "3558": " rece",
  "3559": " env",
  "3560": " comput",
  "3561": " ahead",
  "3562": " spring",
  "3563": "bled",
  "3564": " order",
  "3565": " towers",
  "3566": "comfort",
  "3567": " sorts",
  "3568": " object",
  "3569": "ellig",
  "3570": " wing",
  "3571": " bent",
  "3572": " anx",
  "3573": " cere",
  "3574": " surf",
  "3575": " pengu",
  "3576": " earth",
  "3577": " intellig",
  "3578": " warned",
  "3579": " windows",
  "3580": " spoke",
  "3581": " pow",
  "3582": " pup",
  "3583": "gest",
  "3584": " humble",
  "3585": " uncomfort",
  "3586": " avo",
  "3587": " note",
  "3588": " pant",
  "3589": " uncomfortable",
  "3590": " placed",
  "3591": "Yay",
  "3592": "iches",
  "3593": " sunflower",
  "3594": " pale",
  "3595": " travel",
  "3596": " super",
  "3597": " badly",
  "3598": "-a",
  "3599": " older",
  "3600": " slides",
  "3601": " anxious",
  "3602": "ikes",
  "3603": " biggest",
  "3604": " scale",
  "3605": " compl",
  "3606": " couldnâ",
  "3607": " stack",
  "3608": " flute",
  "3609": " trap",
  "3610": " statue",
  "3611": " scoot",
  "3612": "Ow",
  "3613": " counting",
  "3614": " growing",
  "3615": " cooking",
  "3616": " complet",
  "3617": " liz",
  "3618": " tunnel",
  "3619": " beetle",
  "3620": " celebrate",
  "3621": "host",
  "3622": " mel",
  "3623": "They",
  "3624": " cupboard",
  "3625": " mush",
  "3626": " sofa",
  "3627": " nail",
  "3628": " harmless",
  "3629": " scatter",
  "3630": " Paul",
  "3631": " beauty",
  "3632": " mole",
  "3633": " deaf",
  "3634": " value",
  "3635": " nurse",
  "3636": " perm",
  "3637": " Here",
  "3638": " er",
  "3639": " shut",
  "3640": " persistent",
  "3641": " jumps",
  "3642": " crocodile",
  "3643": " hung",
  "3644": " ghost",
  "3645": " gifted",
  "3646": " Charl",
  "3647": " refused",
  "3648": " charming",
  "3649": " trick",
  "3650": " Give",
  "3651": " neat",
  "3652": " names",
  "3653": " Pat",
  "3654": " courage",
  "3655": "opus",
  "3656": " yawn",
  "3657": " flour",
  "3658": "ctopus",
  "3659": " crane",
  "3660": " curt",
  "3661": " pretending",
  "3662": " pony",
  "3663": " cereal",
  "3664": " base",
  "3665": " sandwiches",
  "3666": "ices",
  "3667": "-old",
  "3668": " raven",
  "3669": " snuggled",
  "3670": " curtain",
  "3671": " destroy",
  "3672": " support",
  "3673": " tur",
  "3674": " ordinary",
  "3675": " chasing",
  "3676": " univer",
  "3677": " Look",
  "3678": " question",
  "3679": " envelope",
  "3680": "aches",
  "3681": "-cream",
  "3682": " drawer",
  "3683": " triang",
  "3684": " vi",
  "3685": " camp",
  "3686": " Un",
  "3687": " sett",
  "3688": "ud",
  "3689": " computer",
  "3690": " octopus",
  "3691": " attract",
  "3692": " rules",
  "3693": " crawl",
  "3694": " lively",
  "3695": " send",
  "3696": " gloomy",
  "3697": " cartoon",
  "3698": " uncle",
  "3699": "ips",
  "3700": " intelligent",
  "3701": "He",
  "3702": " may",
  "3703": " piano",
  "3704": "Tommy",
  "3705": " speed",
  "3706": " package",
  "3707": " blueber",
  "3708": " shaking",
  "3709": " fu",
  "3710": " helmet",
  "3711": " crystal",
  "3712": " needle",
  "3713": " mushroom",
  "3714": " turkey",
  "3715": "oe",
  "3716": " collar",
  "3717": " parade",
  "3718": " creatures",
  "3719": "stri",
  "3720": "heart",
  "3721": "€œThat",
  "3722": " hurry",
  "3723": " twirled",
  "3724": " phot",
  "3725": " lizard",
  "3726": "enry",
  "3727": "erable",
  "3728": "orant",
  "3729": "aff",
  "3730": "ubby",
  "3731": " alert",
  "3732": "und",
  "3733": " miserable",
  "3734": "Max",
  "3735": " thief",
  "3736": "gust",
  "3737": " station",
  "3738": " soldier",
  "3739": " hunter",
  "3740": " pepper",
  "3741": "ceed",
  "3742": " task",
  "3743": "illie",
  "3744": " anywhere",
  "3745": " dug",
  "3746": " disgust",
  "3747": " bicy",
  "3748": " fireman",
  "3749": " ener",
  "3750": " carp",
  "3751": " Grace",
  "3752": "iest",
  "3753": " Before",
  "3754": " wishes",
  "3755": "ses",
  "3756": "cut",
  "3757": " seal",
  "3758": " resist",
  "3759": " led",
  "3760": " vide",
  "3761": " beep",
  "3762": " ignorant",
  "3763": "-aid",
  "3764": " bandage",
  "3765": " stickers",
  "3766": "coa",
  "3767": " Brownie",
  "3768": " screen",
  "3769": " radio",
  "3770": " helpless",
  "3771": " bounced",
  "3772": "tter",
  "3773": " trash",
  "3774": " second",
  "3775": "Give",
  "3776": " leash",
  "3777": " repe",
  "3778": " practiced",
  "3779": " muff",
  "3780": " shine",
  "3781": " chance",
  "3782": " letters",
  "3783": " attractive",
  "3784": " impat",
  "3785": " mill",
  "3786": " stirred",
  "3787": " cricket",
  "3788": " jeep",
  "3789": " stretched",
  "3790": " nobody",
  "3791": "urb",
  "3792": " thread",
  "3793": " pasta",
  "3794": " cube",
  "3795": " pand",
  "3796": " chubby",
  "3797": " tooth",
  "3798": "ummer",
  "3799": " pigeon",
  "3800": " jet",
  "3801": " gir",
  "3802": " Annie",
  "3803": " compassionate",
  "3804": "ccol",
  "3805": " Sh",
  "3806": "If",
  "3807": " club",
  "3808": "ccoli",
  "3809": " trump",
  "3810": " disturb",
  "3811": "orable",
  "3812": " decorate",
  "3813": " Tweetie",
  "3814": " cocoa",
  "3815": " brighter",
  "3816": " jug",
  "3817": " impatient",
  "3818": " steps",
  "3819": "arian",
  "3820": " tire",
  "3821": " competitive",
  "3822": " further",
  "3823": " respectful",
  "3824": " otter",
  "3825": " succeed",
  "3826": "Timmy",
  "3827": " troubled",
  "3828": " pressed",
  "3829": "olin",
  "3830": " itself",
  "3831": "aked",
  "3832": " bet",
  "3833": " ostri",
  "3834": "noon",
  "3835": " candle",
  "3836": " mug",
  "3837": " afternoon",
  "3838": " Jerry",
  "3839": " attic",
  "3840": " restless",
  "3841": " starts",
  "3842": " pun",
  "3843": " tap",
  "3844": " somewhere",
  "3845": " Bet",
  "3846": " Are",
  "3847": " ribb",
  "3848": "aurant",
  "3849": "stic",
  "3850": " dess",
  "3851": " carpet",
  "3852": " anyway",
  "3853": " shouts",
  "3854": " shoe",
  "3855": " disgusting",
  "3856": " adorable",
  "3857": " restaurant",
  "3858": " skip",
  "3859": " leop",
  "3860": " fort",
  "3861": "gn",
  "3862": " pants",
  "3863": " vine",
  "3864": " Where",
  "3865": " tray",
  "3866": " nuts",
  "3867": " waff",
  "3868": " case",
  "3869": " gor",
  "3870": " fearful",
  "3871": " screw",
  "3872": " envious",
  "3873": " sweetheart",
  "3874": "opter",
  "3875": " cards",
  "3876": " allig",
  "3877": "icopter",
  "3878": " Tr",
  "3879": " distant",
  "3880": "iastic",
  "3881": " enthusiastic",
  "3882": " broccoli",
  "3883": "enny",
  "3884": " hipp",
  "3885": " filthy",
  "3886": " giggle",
  "3887": " exper",
  "3888": " Lee",
  "3889": "Re",
  "3890": " trumpet",
  "3891": " cooked",
  "3892": " quar",
  "3893": " helicopter",
  "3894": " monkeys",
  "3895": " Everything",
  "3896": "-y",
  "3897": "night",
  "3898": " reco",
  "3899": " por",
  "3900": " Will",
  "3901": "irit",
  "3902": " sandbox",
  "3903": "aroo",
  "3904": "angaroo",
  "3905": " harsh",
  "3906": " hook",
  "3907": " Would",
  "3908": " Charlie",
  "3909": " bri",
  "3910": " Lilly",
  "3911": " admire",
  "3912": " nowhere",
  "3913": " ten",
  "3914": " backpack",
  "3915": "gging",
  "3916": " soar",
  "3917": " sent",
  "3918": " belt",
  "3919": " batht",
  "3920": "gie",
  "3921": " explain",
  "3922": " scooter",
  "3923": " ants",
  "3924": " meas",
  "3925": " poem",
  "3926": "opl",
  "3927": " country",
  "3928": " Snow",
  "3929": "eropl",
  "3930": "cycle",
  "3931": " bathtub",
  "3932": " pipe",
  "3933": " barking",
  "3934": " aeropl",
  "3935": " quite",
  "3936": " unpack",
  "3937": "stairs",
  "3938": "par",
  "3939": " cows",
  "3940": " speak",
  "3941": " kangaroo",
  "3942": " lid",
  "3943": " squash",
  "3944": " Henry",
  "3945": " leopard",
  "3946": " mama",
  "3947": " happier",
  "3948": " spell",
  "3949": " repair",
  "3950": " Red",
  "3951": " listening",
  "3952": " bicycle",
  "3953": " separ",
  "3954": "imi",
  "3955": " summer",
  "3956": " Maria",
  "3957": " Sm",
  "3958": " stared",
  "3959": " Pap",
  "3960": " grabs",
  "3961": " message",
  "3962": " breat",
  "3963": " didnâ",
  "3964": "uct",
  "3965": " ostrich",
  "3966": " firework",
  "3967": " human",
  "3968": " loop",
  "3969": " given",
  "3970": " comet",
  "3971": " mule",
  "3972": "hood",
  "3973": " vol",
  "3974": " Millie",
  "3975": " sort",
  "3976": " impro",
  "3977": " gorilla",
  "3978": " modest",
  "3979": " paid",
  "3980": " finds",
  "3981": " yogurt",
  "3982": "-year",
  "3983": " Baby",
  "3984": " dessert",
  "3985": " obser",
  "3986": " meat",
  "3987": " violin",
  "3988": " ur",
  "3989": "Bye",
  "3990": " hedge",
  "3991": "ipping",
  "3992": " spirit",
  "3993": " Sandy",
  "3994": " pulls",
  "3995": " tripped",
  "3996": " melon",
  "3997": " jellyfish",
  "3998": " split",
  "3999": " Bunny",
  "4000": " paws",
  "4001": " Kate",
  "4002": " alligator",
  "4003": " fle",
  "4004": " rescue",
  "4005": " size",
  "4006": " holes",
  "4007": " Papa",
  "4008": " prov",
  "4009": "ucked",
  "4010": " Jess",
  "4011": " roared",
  "4012": " five",
  "4013": " forgave",
  "4014": " cats",
  "4015": " wheat",
  "4016": " purse",
  "4017": " recogn",
  "4018": " hippo",
  "4019": " pilot",
  "4020": " hall",
  "4021": " sheet",
  "4022": " tax",
  "4023": " pal",
  "4024": " cact",
  "4025": " pushing",
  "4026": " inse",
  "4027": "ophone",
  "4028": " bikes",
  "4029": " organize",
  "4030": "ci",
  "4031": " swinging",
  "4032": " raft",
  "4033": " sle",
  "4034": " Mimi",
  "4035": " salt",
  "4036": " scold",
  "4037": " starting",
  "4038": " Mag",
  "4039": " shade",
  "4040": " behave",
  "4041": " bin",
  "4042": " Ted",
  "4043": " lightning",
  "4044": " rice",
  "4045": " oat",
  "4046": " haircut",
  "4047": " brus",
  "4048": " triangle",
  "4049": "eer",
  "4050": " buzz",
  "4051": " energy",
  "4052": "iskers",
  "4053": " Buddy",
  "4054": "€œYou",
  "4055": " frowned",
  "4056": " bur",
  "4057": " knot",
  "4058": "bul",
  "4059": " lear",
  "4060": "aled",
  "4061": " learnt",
  "4062": " either",
  "4063": " porch",
  "4064": " math",
  "4065": " riding",
  "4066": " ped",
  "4067": " lip",
  "4068": "cano",
  "4069": "seum",
  "4070": " trains",
  "4071": "ebook",
  "4072": " ended",
  "4073": " notebook",
  "4074": " sticker",
  "4075": "iling",
  "4076": "inking",
  "4077": " Danny",
  "4078": " lend",
  "4079": " Ros",
  "4080": " wallet",
  "4081": " luck",
  "4082": " evening",
  "4083": "reci",
  "4084": " panda",
  "4085": " cactus",
  "4086": " Whiskers",
  "4087": " jokes",
  "4088": " chalk",
  "4089": " bananas",
  "4090": " papers",
  "4091": " rod",
  "4092": " museum",
  "4093": " sweater",
  "4094": " appreci",
  "4095": " lions",
  "4096": " palace",
  "4097": " taxi",
  "4098": " volcano",
  "4099": "ube",
  "4100": " shopkeeper",
  "4101": " chain",
  "4102": " strawberry",
  "4103": " bears",
  "4104": " rolling",
  "4105": " boots",
  "4106": " eras",
  "4107": " hadn",
  "4108": " neighbour",
  "4109": "astic",
  "4110": " barrel",
  "4111": " shakes",
  "4112": "ffe",
  "4113": " micr",
  "4114": "icer",
  "4115": "ffee",
  "4116": "ooped",
  "4117": " silver",
  "4118": "urch",
  "4119": " laund",
  "4120": " alive",
  "4121": " smells",
  "4122": " mild",
  "4123": " Ru",
  "4124": "play",
  "4125": " reind",
  "4126": " sock",
  "4127": " laundry",
  "4128": " steak",
  "4129": " avoc",
  "4130": " pole",
  "4131": " ink",
  "4132": " strugg",
  "4133": "iron",
  "4134": " pushes",
  "4135": " visited",
  "4136": " putting",
  "4137": " goal",
  "4138": " softly",
  "4139": " magnet",
  "4140": " judge",
  "4141": " Tony",
  "4142": " tricks",
  "4143": "edy",
  "4144": " drawings",
  "4145": " microphone",
  "4146": " clapping",
  "4147": " pad",
  "4148": " ol",
  "4149": " hive",
  "4150": " shield",
  "4151": " tube",
  "4152": " leaned",
  "4153": " colours",
  "4154": " sailor",
  "4155": " shovel",
  "4156": " airport",
  "4157": " zoomed",
  "4158": " falling",
  "4159": " rag",
  "4160": " belongs",
  "4161": " shelter",
  "4162": " Bun",
  "4163": " unlock",
  "4164": " sprink",
  "4165": " Inst",
  "4166": " checked",
  "4167": " Harry",
  "4168": "elery",
  "4169": " insist",
  "4170": " quarrel",
  "4171": " penguin",
  "4172": "happy",
  "4173": " ambul",
  "4174": " climbing",
  "4175": " marched",
  "4176": " gro",
  "4177": " display",
  "4178": " reindeer",
  "4179": "hino",
  "4180": " saus",
  "4181": "ense",
  "4182": "cast",
  "4183": " aeroplane",
  "4184": " dive",
  "4185": " dishes",
  "4186": "ophy",
  "4187": " polish",
  "4188": " barks",
  "4189": "ges",
  "4190": " avail",
  "4191": " donâ",
  "4192": " fields",
  "4193": " grapes",
  "4194": "Mia",
  "4195": " sandcast",
  "4196": " ambulance",
  "4197": " peek",
  "4198": " Or",
  "4199": "ait",
  "4200": " apologized",
  "4201": " soil",
  "4202": " yach",
  "4203": " coffee",
  "4204": " skill",
  "4205": "sely",
  "4206": " costume",
  "4207": " elev",
  "4208": " oy",
  "4209": " trophy",
  "4210": " feelings",
  "4211": " planet",
  "4212": " hoping",
  "4213": "anic",
  "4214": " film",
  "4215": " prun",
  "4216": " art",
  "4217": " rubber",
  "4218": "Dad",
  "4219": " unhappy",
  "4220": "ron",
  "4221": " drops",
  "4222": " shrimp",
  "4223": "nger",
  "4224": " medal",
  "4225": " kitty",
  "4226": "€“",
  "4227": " thanks",
  "4228": " raining",
  "4229": " men",
  "4230": "chanic",
  "4231": " stom",
  "4232": " minute",
  "4233": " elevator",
  "4234": " celery",
  "4235": " cord",
  "4236": " onion",
  "4237": " rhino",
  "4238": " available",
  "4239": "ected",
  "4240": " eraser",
  "4241": " incl",
  "4242": " page",
  "4243": " short",
  "4244": " yacht",
  "4245": "reeze",
  "4246": " shouldn",
  "4247": " fisher",
  "4248": " perfectly",
  "4249": " imagine",
  "4250": " wool",
  "4251": " winter",
  "4252": " marry",
  "4253": " basketball",
  "4254": " mechanic",
  "4255": " diary",
  "4256": " bul",
  "4257": "nam",
  "4258": " herb",
  "4259": " Kat",
  "4260": " flies",
  "4261": " complete",
  "4262": " rever",
  "4263": " appl",
  "4264": " Ab",
  "4265": " closely",
  "4266": "aused",
  "4267": " cardboard",
  "4268": " insect",
  "4269": " magaz",
  "4270": "Ha",
  "4271": " eagerly",
  "4272": " player",
  "4273": "eath",
  "4274": " journal",
  "4275": " Smith",
  "4276": "Jim",
  "4277": " vend",
  "4278": " baking",
  "4279": " quit",
  "4280": " furn",
  "4281": " glove",
  "4282": "iture",
  "4283": " disag",
  "4284": " James",
  "4285": " furniture",
  "4286": " stuffed",
  "4287": " tub",
  "4288": " breaks",
  "4289": " imagination",
  "4290": " bulb",
  "4291": " treasures",
  "4292": " church",
  "4293": "gen",
  "4294": "ecause",
  "4295": " counter",
  "4296": " headed",
  "4297": " wife",
  "4298": "any",
  "4299": " cooler",
  "4300": " pair",
  "4301": "azz",
  "4302": " freez",
  "4303": " frogs",
  "4304": " Miss",
  "4305": " tut",
  "4306": "quit",
  "4307": " skull",
  "4308": " Jul",
  "4309": "mand",
  "4310": "ories",
  "4311": " knob",
  "4312": " pit",
  "4313": "ween",
  "4314": " factor",
  "4315": " switch",
  "4316": " football",
  "4317": "place",
  "4318": " offer",
  "4319": "ides",
  "4320": " between",
  "4321": " sunset",
  "4322": " lie",
  "4323": " Instead",
  "4324": "aulif",
  "4325": " Clara",
  "4326": "aulifl",
  "4327": " cheek",
  "4328": " swung",
  "4329": " sym",
  "4330": " factory",
  "4331": " cups",
  "4332": " motorcycle",
  "4333": "pe",
  "4334": "right",
  "4335": " chirp",
  "4336": " mos",
  "4337": "quito",
  "4338": " flame",
  "4339": " twink",
  "4340": " shouting",
  "4341": "nament",
  "4342": " painter",
  "4343": " golf",
  "4344": " peach",
  "4345": " ornament",
  "4346": "kelet",
  "4347": " blowing",
  "4348": " hut",
  "4349": "affe",
  "4350": " sung",
  "4351": " hotel",
  "4352": "Jack",
  "4353": " seeing",
  "4354": " folder",
  "4355": " caulifl",
  "4356": " vendor",
  "4357": "ccer",
  "4358": "lass",
  "4359": " video",
  "4360": " mixer",
  "4361": "Mama",
  "4362": "izes",
  "4363": "bol",
  "4364": " throws",
  "4365": " pirates",
  "4366": " created",
  "4367": "orses",
  "4368": " heads",
  "4369": " oil",
  "4370": " kay",
  "4371": " frame",
  "4372": " mosquito",
  "4373": " Maggie",
  "4374": "angu",
  "4375": "Mum",
  "4376": "mm",
  "4377": " May",
  "4378": " cushion",
  "4379": " soccer",
  "4380": " fisherman",
  "4381": " coal",
  "4382": "zzy",
  "4383": " symbol",
  "4384": "..",
  "4385": " horses",
  "4386": " cable",
  "4387": "ceros",
  "4388": " popped",
  "4389": " langu",
  "4390": " wipe",
  "4391": "ab",
  "4392": " pine",
  "4393": " attention",
  "4394": " skelet",
  "4395": " battery",
  "4396": "Molly",
  "4397": " powder",
  "4398": " cauliflower",
  "4399": " stud",
  "4400": " laser",
  "4401": " God",
  "4402": "render",
  "4403": " forgotten",
  "4404": "ef",
  "4405": " weather",
  "4406": "rod",
  "4407": " lives",
  "4408": " mop",
  "4409": " celebrated",
  "4410": " fishing",
  "4411": " ax",
  "4412": " rot",
  "4413": " since",
  "4414": " trail",
  "4415": " Iâ",
  "4416": "elcome",
  "4417": "aws",
  "4418": " maze",
  "4419": " photo",
  "4420": "ites",
  "4421": " yoga",
  "4422": " surround",
  "4423": " waving",
  "4424": " slept",
  "4425": " sneak",
  "4426": " anch",
  "4427": " dear",
  "4428": "unately",
  "4429": " giraffe",
  "4430": " introd",
  "4431": " rhinoceros",
  "4432": " poke",
  "4433": " swamp",
  "4434": "ple",
  "4435": " flea",
  "4436": " points",
  "4437": " itch",
  "4438": " point",
  "4439": " glowing",
  "4440": " fireplace",
  "4441": " itâ",
  "4442": " breeze",
  "4443": "ney",
  "4444": "lasses",
  "4445": " sub",
  "4446": " vet",
  "4447": " sunglasses",
  "4448": "Your",
  "4449": " kingdom",
  "4450": " memories",
  "4451": " tutor",
  "4452": " streng",
  "4453": " tuna",
  "4454": " iron",
  "4455": " reve",
  "4456": " Rosie",
  "4457": " vest",
  "4458": "spap",
  "4459": " petals",
  "4460": " fog",
  "4461": " mistakes",
  "4462": " axe",
  "4463": " Ste",
  "4464": " complain",
  "4465": " baseball",
  "4466": " dancer",
  "4467": " chickens",
  "4468": " parent",
  "4469": "hero",
  "4470": " ig",
  "4471": " newspap",
  "4472": " strength",
  "4473": " greedy",
  "4474": " ceiling",
  "4475": " squirrels",
  "4476": "ckey",
  "4477": " hockey",
  "4478": " igloo",
  "4479": " sir",
  "4480": " True",
  "4481": " grin",
  "4482": "chie",
  "4483": " anchor",
  "4484": " skeleton",
  "4485": "rosc",
  "4486": " sniffed",
  "4487": " grocer",
  "4488": " superhero",
  "4489": " argue",
  "4490": " napkin",
  "4491": " golden",
  "4492": "ues",
  "4493": " hanging",
  "4494": " musician",
  "4495": " trave",
  "4496": "medi",
  "4497": " skirt",
  "4498": "roscope",
  "4499": " staff",
  "4500": " temple",
  "4501": " unif",
  "4502": " agree",
  "4503": " sque",
  "4504": " bury",
  "4505": "mediately",
  "4506": " theater",
  "4507": " discu",
  "4508": " uniform",
  "4509": " eaten",
  "4510": " slipper",
  "4511": " welcomed",
  "4512": " seas",
  "4513": " shoulder",
  "4514": " zipper",
  "4515": " quietly",
  "4516": " meeting",
  "4517": "ssible",
  "4518": " lime",
  "4519": " invest",
  "4520": "istol",
  "4521": " microscope",
  "4522": "sing",
  "4523": " pinch",
  "4524": "chair",
  "4525": " flapped",
  "4526": " slippery",
  "4527": " accepted",
  "4528": " fought",
  "4529": " investig",
  "4530": "erc",
  "4531": " pistol",
  "4532": " doors",
  "4533": " miner",
  "4534": "reek",
  "4535": " radish",
  "4536": " plastic",
  "4537": " throwing",
  "4538": " calls",
  "4539": " bouncing",
  "4540": "tress",
  "4541": " mattress",
  "4542": "men",
  "4543": " surrender",
  "4544": " cob",
  "4545": "aces",
  "4546": "house",
  "4547": " pear",
  "4548": " kayak",
  "4549": " vroom",
  "4550": " creek",
  "4551": " moves",
  "4552": "tain",
  "4553": " sticky",
  "4554": " lawy",
  "4555": "Qu",
  "4556": " novel",
  "4557": "Wait",
  "4558": "llie",
  "4559": "alley",
  "4560": " cub",
  "4561": " avocado",
  "4562": " cared",
  "4563": " suff",
  "4564": " freezer",
  "4565": " lotion",
  "4566": "aud",
  "4567": "case",
  "4568": "ison",
  "4569": "ler",
  "4570": " First",
  "4571": "te",
  "4572": "was",
  "4573": " fauc",
  "4574": "And",
  "4575": " Tina",
  "4576": " armchair",
  "4577": " writing",
  "4578": "inked",
  "4579": " reef",
  "4580": " makeup",
  "4581": " mystery",
  "4582": " valley",
  "4583": "web",
  "4584": " tug",
  "4585": " investigate",
  "4586": " news",
  "4587": " sailing",
  "4588": " cherries",
  "4589": " Re",
  "4590": " regret",
  "4591": " crib",
  "4592": "washer",
  "4593": "imney",
  "4594": " exerc",
  "4595": " oyster",
  "4596": " faucet",
  "4597": " agre",
  "4598": " splashing",
  "4599": " ticket",
  "4600": " collected",
  "4601": " worth",
  "4602": " chimney",
  "4603": " toil",
  "4604": " presents",
  "4605": " dishwasher",
  "4606": " magazine",
  "4607": " sprayed",
  "4608": " happens",
  "4609": " wags",
  "4610": "€œItâ",
  "4611": " prevent",
  "4612": " cobweb",
  "4613": " quack",
  "4614": " veil",
  "4615": " entered",
  "4616": " castles",
  "4617": " tear",
  "4618": " shrugged",
  "4619": " har",
  "4620": " passport",
  "4621": " applaud",
  "4622": " separate",
  "4623": " chess",
  "4624": " scolded",
  "4625": "Thanks",
  "4626": " weigh",
  "4627": " toilet",
  "4628": " alarm",
  "4629": "ives",
  "4630": " See",
  "4631": " blankets",
  "4632": " rake",
  "4633": " ignored",
  "4634": " tucked",
  "4635": " lawyer",
  "4636": " choice",
  "4637": "ived",
  "4638": " hopes",
  "4639": " attach",
  "4640": " coats",
  "4641": "sit",
  "4642": " candles",
  "4643": " follows",
  "4644": " kisses",
  "4645": " appro",
  "4646": " classroom",
  "4647": "ring",
  "4648": " puddles",
  "4649": " easily",
  "4650": " apart",
  "4651": "ety",
  "4652": " disappear",
  "4653": " Freddy",
  "4654": " beef",
  "4655": " chairs",
  "4656": " burned",
  "4657": " bother",
  "4658": " Sad",
  "4659": " letting",
  "4660": " straight",
  "4661": "eterin",
  "4662": "eterinarian",
  "4663": " yield",
  "4664": " dressed",
  "4665": " ward",
  "4666": " cane",
  "4667": " trusted",
  "4668": " language",
  "4669": " sizes",
  "4670": " veterinarian",
  "4671": " raz",
  "4672": " teleph",
  "4673": " Me",
  "4674": "raged",
  "4675": " caring",
  "4676": " planes",
  "4677": " wardrobe",
  "4678": " jewelry",
  "4679": " blinked",
  "4680": "atched",
  "4681": "iday",
  "4682": " shower",
  "4683": " rise",
  "4684": " missile",
  "4685": " keeping",
  "4686": " lawn",
  "4687": " requ",
  "4688": " stable",
  "4689": " cabinet",
  "4690": " crossed",
  "4691": " oak",
  "4692": " ble",
  "4693": " However",
  "4694": " bookshe",
  "4695": "vision",
  "4696": " stro",
  "4697": " telephone",
  "4698": " newspaper",
  "4699": "mend",
  "4700": " claws",
  "4701": " whisper",
  "4702": " rooms",
  "4703": " sigh",
  "4704": " puzzles",
  "4705": " aut",
  "4706": " trade",
  "4707": " incre",
  "4708": "ival",
  "4709": " cell",
  "4710": " tornado",
  "4711": " scratch",
  "4712": "anges",
  "4713": "una",
  "4714": " bookcase",
  "4715": " inf",
  "4716": "ampoo",
  "4717": " Milly",
  "4718": " blueberries",
  "4719": " snap",
  "4720": " amazement",
  "4721": " perfu",
  "4722": "ction",
  "4723": "ommend",
  "4724": " squeezed",
  "4725": " bookshelf",
  "4726": " recommend",
  "4727": " opera",
  "4728": " subway",
  "4729": " pra",
  "4730": " Ruby",
  "4731": " delay",
  "4732": " gym",
  "4733": " grill",
  "4734": " razor",
  "4735": " Help",
  "4736": " blouse",
  "4737": " request",
  "4738": " crawling",
  "4739": " pur",
  "4740": " poked",
  "4741": " television",
  "4742": " bill",
  "4743": " hol",
  "4744": "ggy",
  "4745": " following",
  "4746": "omes",
  "4747": "iction",
  "4748": " shampoo",
  "4749": " file",
  "4750": " licks",
  "4751": " spear",
  "4752": " squeeze",
  "4753": " holiday",
  "4754": "Because",
  "4755": " experience",
  "4756": " lumber",
  "4757": " improve",
  "4758": " Is",
  "4759": " mint",
  "4760": " perfume",
  "4761": " serve",
  "4762": " demand",
  "4763": " steam",
  "4764": " ringing",
  "4765": " cliff",
  "4766": " crow",
  "4767": "fortunately",
  "4768": "ictionary",
  "4769": "bbie",
  "4770": " ribbon",
  "4771": " immediately",
  "4772": " helper",
  "4773": " Fo",
  "4774": " muffin",
  "4775": " fest",
  "4776": " growled",
  "4777": " isn",
  "4778": " begged",
  "4779": " dictionary",
  "4780": " shrink",
  "4781": " matches",
  "4782": " waste",
  "4783": " blood",
  "4784": " birdc",
  "4785": " prop",
  "4786": " ideas",
  "4787": " warmth",
  "4788": " Snowy",
  "4789": "ib",
  "4790": " mustache",
  "4791": " sneeze",
  "4792": "ores",
  "4793": " invite",
  "4794": " People",
  "4795": "hic",
  "4796": " gear",
  "4797": " birdcage",
  "4798": " vehic",
  "4799": " fuel",
  "4800": " alright",
  "4801": "alend",
  "4802": " Luck",
  "4803": " rabbits",
  "4804": "asis",
  "4805": " calend",
  "4806": "€.",
  "4807": " weep",
  "4808": " yucky",
  "4809": " flutter",
  "4810": " instr",
  "4811": " Luckily",
  "4812": " fallen",
  "4813": " married",
  "4814": " berry",
  "4815": "lier",
  "4816": " rail",
  "4817": " Each",
  "4818": " pastry",
  "4819": " row",
  "4820": " refre",
  "4821": "ucture",
  "4822": "Did",
  "4823": " worms",
  "4824": " structure",
  "4825": " laught",
  "4826": " surprises",
  "4827": " below",
  "4828": " bravely",
  "4829": " calendar",
  "4830": " oasis",
  "4831": " wandered",
  "4832": " wigg",
  "4833": " kneel",
  "4834": "ising",
  "4835": " dire",
  "4836": " understanding",
  "4837": " hurting",
  "4838": " laughter",
  "4839": "omeday",
  "4840": " drain",
  "4841": " pages",
  "4842": " float",
  "4843": " hearts",
  "4844": " enter",
  "4845": "Ok",
  "4846": " Katie",
  "4847": " airpl",
  "4848": "inky",
  "4849": " item",
  "4850": "omob",
  "4851": " King",
  "4852": "ah",
  "4853": " harb",
  "4854": " reaches",
  "4855": " apron",
  "4856": " Liz",
  "4857": "Is",
  "4858": " safety",
  "4859": " Ollie",
  "4860": " crash",
  "4861": " automob",
  "4862": " bathe",
  "4863": " buried",
  "4864": "€œNo",
  "4865": " junk",
  "4866": " buckle",
  "4867": " admir",
  "4868": " root",
  "4869": " captain",
  "4870": " strawberries",
  "4871": "achel",
  "4872": " myself",
  "4873": " relaxed",
  "4874": " sandcastle",
  "4875": "oral",
  "4876": " skills",
  "4877": " ignore",
  "4878": " plates",
  "4879": "Welcome",
  "4880": "'ve",
  "4881": " whip",
  "4882": " Who",
  "4883": " spade",
  "4884": " moments",
  "4885": " reverse",
  "4886": "htray",
  "4887": "icing",
  "4888": " quiz",
  "4889": " ashtray",
  "4890": " Joy",
  "4891": " festival",
  "4892": " beamed",
  "4893": " snapped",
  "4894": " Rachel",
  "4895": "riger",
  "4896": " someday",
  "4897": " refriger",
  "4898": " raise",
  "4899": "cakes",
  "4900": " received",
  "4901": "Yuck",
  "4902": " Co",
  "4903": " refrigerator",
  "4904": "!'",
  "4905": " Everyday",
  "4906": "ari",
  "4907": " earlier",
  "4908": " tong",
  "4909": " lic",
  "4910": " weap",
  "4911": " vac",
  "4912": " teaching",
  "4913": " mass",
  "4914": " harbor",
  "4915": " Betsy",
  "4916": " model",
  "4917": " Its",
  "4918": " sparkling",
  "4919": " spots",
  "4920": "aped",
  "4921": " insisted",
  "4922": " saving",
  "4923": " vanished",
  "4924": " bumped",
  "4925": " socks",
  "4926": " Buzz",
  "4927": " thumb",
  "4928": "anna",
  "4929": " dried",
  "4930": " supply",
  "4931": "ission",
  "4932": " Steve",
  "4933": " blackboard",
  "4934": "igail",
  "4935": " prepare",
  "4936": " jewels",
  "4937": " jail",
  "4938": " spending",
  "4939": " balan",
  "4940": " scattered",
  "4941": " toes",
  "4942": "xy",
  "4943": " scooped",
  "4944": " settled",
  "4945": " permission",
  "4946": " sparkle",
  "4947": " known",
  "4948": "ctly",
  "4949": " breathe",
  "4950": " boot",
  "4951": "-ups",
  "4952": " yawned",
  "4953": "   ",
  "4954": " Penny",
  "4955": " res",
  "4956": "amber",
  "4957": " achie",
  "4958": " destroyed",
  "4959": " V",
  "4960": " bathrobe",
  "4961": " Abigail",
  "4962": " tease",
  "4963": " remain",
  "4964": " hardly",
  "4965": " encouraged",
  "4966": " replace",
  "4967": " waffle",
  "4968": "antly",
  "4969": " pride",
  "4970": " lemonade",
  "4971": " dare",
  "4972": " hanger",
  "4973": " Have",
  "4974": " sits",
  "4975": " pulling",
  "4976": " decorations",
  "4977": "sters",
  "4978": "ops",
  "4979": " remove",
  "4980": " cuddled",
  "4981": " hate",
  "4982": " daisy",
  "4983": " license",
  "4984": "avid",
  "4985": "uch",
  "4986": " beans",
  "4987": " Poppy",
  "4988": " simp",
  "4989": " port",
  "4990": " respons",
  "4991": " praised",
  "4992": "€<|",
  "4993": "reat",
  "4994": " chirping",
  "4995": " hits",
  "4996": "ents",
  "4997": "asp",
  "4998": " equ",
  "4999": "To",
  "5000": " fastest",
  "5001": " suffer",
  "5002": " buzzing",
  "5003": " patiently",
  "5004": " dresses",
  "5005": " mention",
  "5006": " bleed",
  "5007": "sity",
  "5008": " rhy",
  "5009": " automobile",
  "5010": "nies",
  "5011": " appreciate",
  "5012": " wiz",
  "5013": " poppy",
  "5014": " destination",
  "5015": " taller",
  "5016": " mall",
  "5017": "osed",
  "5018": " homes",
  "5019": " nation",
  "5020": "ium",
  "5021": " flav",
  "5022": " digg",
  "5023": " guy",
  "5024": " climbs",
  "5025": " washing",
  "5026": " palm",
  "5027": " glo",
  "5028": " shot",
  "5029": " label",
  "5030": " digging",
  "5031": " believed",
  "5032": " approached",
  "5033": " hesit",
  "5034": "fied",
  "5035": " none",
  "5036": " tore",
  "5037": "Mmm",
  "5038": " deeper",
  "5039": " wine",
  "5040": " infant",
  "5041": "ude",
  "5042": " restore",
  "5043": " score",
  "5044": " hers",
  "5045": " chamber",
  "5046": " mitten",
  "5047": " sausage",
  "5048": "rm",
  "5049": " struggling",
  "5050": " differen",
  "5051": " heat",
  "5052": " tongue",
  "5053": " hills",
  "5054": " hurric",
  "5055": " punish",
  "5056": " pillows",
  "5057": " Frank",
  "5058": " billboard",
  "5059": " sneezed",
  "5060": " David",
  "5061": " sport",
  "5062": " wizard",
  "5063": " upstairs",
  "5064": " thrilled",
  "5065": " provide",
  "5066": " brain",
  "5067": " awe",
  "5068": " discuss",
  "5069": " Mat",
  "5070": " panic",
  "5071": " warning",
  "5072": " twisted",
  "5073": " glowed",
  "5074": " universe",
  "5075": " firef",
  "5076": " therm",
  "5077": " vacation",
  "5078": " crunch",
  "5079": " worse",
  "5080": "Jimmy",
  "5081": " poison",
  "5082": " shed",
  "5083": " solved",
  "5084": " parts",
  "5085": "osity",
  "5086": "bey",
  "5087": " event",
  "5088": " setting",
  "5089": "allen",
  "5090": " tour",
  "5091": " remained",
  "5092": "Mummy",
  "5093": " airplane",
  "5094": " Spike",
  "5095": " hurricane",
  "5096": " thermomet",
  "5097": " plays",
  "5098": " examine",
  "5099": " sparkles",
  "5100": " shooting",
  "5101": " invit",
  "5102": " neighborhood",
  "5103": " sty",
  "5104": " chores",
  "5105": " oranges",
  "5106": " floated",
  "5107": " ranch",
  "5108": " challen",
  "5109": "thm",
  "5110": " weeks",
  "5111": " leak",
  "5112": " university",
  "5113": "ging",
  "5114": "shing",
  "5115": " paints",
  "5116": " thermometer",
  "5117": " bites",
  "5118": " repeat",
  "5119": " bang",
  "5120": "adium",
  "5121": " floating",
  "5122": " fixing",
  "5123": " measured",
  "5124": " stadium",
  "5125": " grinned",
  "5126": "These",
  "5127": "do",
  "5128": "!\",",
  "5129": " during",
  "5130": " surrounded",
  "5131": " supposed",
  "5132": "aspoon",
  "5133": " conf",
  "5134": " rhythm",
  "5135": " massage",
  "5136": " brings",
  "5137": " cherry",
  "5138": " paused",
  "5139": " gifts",
  "5140": " Cat",
  "5141": " fut",
  "5142": " sprinkles",
  "5143": " fasc",
  "5144": "Sp",
  "5145": " future",
  "5146": " memory",
  "5147": " Unfortunately",
  "5148": "€œIâ",
  "5149": " teaspoon",
  "5150": " grey",
  "5151": "rise",
  "5152": " collection",
  "5153": " signs",
  "5154": " marbles",
  "5155": "'.",
  "5156": "bbles",
  "5157": " jazz",
  "5158": " stomach",
  "5159": "Would",
  "5160": "emember",
  "5161": " Good",
  "5162": " gust",
  "5163": " wisdom",
  "5164": " actually",
  "5165": " flood",
  "5166": " discovery",
  "5167": " includ",
  "5168": " sew",
  "5169": " vehicle",
  "5170": " tide",
  "5171": " lily",
  "5172": "-ray",
  "5173": " girls",
  "5174": " sunrise",
  "5175": "ishing",
  "5176": " Zoe",
  "5177": "€œThatâ",
  "5178": "vet",
  "5179": " meowed",
  "5180": "anny",
  "5181": "ls",
  "5182": " elephants",
  "5183": " urge",
  "5184": " exercise",
  "5185": " mailman",
  "5186": "umble",
  "5187": " lugg",
  "5188": " rush",
  "5189": " decision",
  "5190": " chewed",
  "5191": "ero",
  "5192": " weapon",
  "5193": " strang",
  "5194": " observe",
  "5195": " luggage",
  "5196": " unite",
  "5197": " cartoons",
  "5198": " sore",
  "5199": " fascin",
  "5200": " tomatoes",
  "5201": "iers",
  "5202": " scur",
  "5203": " Chr",
  "5204": " possible",
  "5205": " Ra",
  "5206": " toe",
  "5207": "allow",
  "5208": "cles",
  "5209": " sunlight",
  "5210": "ities",
  "5211": " folded",
  "5212": " curled",
  "5213": " chirped",
  "5214": " rust",
  "5215": " melted",
  "5216": " spill",
  "5217": " cakes",
  "5218": " Beth",
  "5219": " sip",
  "5220": "uing",
  "5221": " collecting",
  "5222": " Qu",
  "5223": " x",
  "5224": " grape",
  "5225": "son",
  "5226": " Someone",
  "5227": " mineral",
  "5228": "Sh",
  "5229": " difference",
  "5230": " problems",
  "5231": " bak",
  "5232": " tracks",
  "5233": " jogging",
  "5234": " Remy",
  "5235": " wherever",
  "5236": " mountains",
  "5237": "ipment",
  "5238": " bes",
  "5239": "eed",
  "5240": "Ready",
  "5241": " sliding",
  "5242": " Spark",
  "5243": " manage",
  "5244": " equipment",
  "5245": " laid",
  "5246": "etch",
  "5247": "Not",
  "5248": " admiring",
  "5249": " lick",
  "5250": " watered",
  "5251": "cious",
  "5252": " satis",
  "5253": " contain",
  "5254": " oper",
  "5255": "Bob",
  "5256": " bricks",
  "5257": " Je",
  "5258": "oved",
  "5259": " twigs",
  "5260": " patterns",
  "5261": "rr",
  "5262": " kindly",
  "5263": " petted",
  "5264": " skipping",
  "5265": " Fro",
  "5266": " potatoes",
  "5267": " seats",
  "5268": "bers",
  "5269": " soldiers",
  "5270": " gloves",
  "5271": " spaces",
  "5272": "zag",
  "5273": "joyed",
  "5274": " receive",
  "5275": " keeper",
  "5276": " copper",
  "5277": " emer",
  "5278": " slice",
  "5279": " lets",
  "5280": " Luna",
  "5281": " gain",
  "5282": " continue",
  "5283": " Sund",
  "5284": " ordered",
  "5285": " strangers",
  "5286": "walk",
  "5287": " Jan",
  "5288": " overjoyed",
  "5289": " Sunday",
  "5290": " watches",
  "5291": " gotten",
  "5292": " pigs",
  "5293": " zipped",
  "5294": "omas",
  "5295": " Jam",
  "5296": "mother",
  "5297": " whistling",
  "5298": " lands",
  "5299": " gaz",
  "5300": " beside",
  "5301": "-se",
  "5302": "€œThank",
  "5303": " safari",
  "5304": " beg",
  "5305": " prayed",
  "5306": "Will",
  "5307": " peered",
  "5308": " network",
  "5309": "bbled",
  "5310": " spit",
  "5311": " eff",
  "5312": " invitation",
  "5313": " marching",
  "5314": " Moral",
  "5315": " ours",
  "5316": "ases",
  "5317": " glitter",
  "5318": " wooden",
  "5319": " Not",
  "5320": " earthqu",
  "5321": " sidewalk",
  "5322": " eagle",
  "5323": "igzag",
  "5324": " doggy",
  "5325": " drinks",
  "5326": " grocery",
  "5327": "irp",
  "5328": " weight",
  "5329": " navy",
  "5330": " acorns",
  "5331": " attached",
  "5332": "Al",
  "5333": " disagreed",
  "5334": " raised",
  "5335": " weren",
  "5336": "Yum",
  "5337": " Letâ",
  "5338": "loe",
  "5339": " beat",
  "5340": "-and",
  "5341": " company",
  "5342": " Julie",
  "5343": " mister",
  "5344": " burning",
  "5345": " onwards",
  "5346": "fy",
  "5347": "hest",
  "5348": "\",",
  "5349": " wre",
  "5350": " happiest",
  "5351": " Suzy",
  "5352": " racing",
  "5353": " brid",
  "5354": " crashed",
  "5355": " Sunny",
  "5356": " spoons",
  "5357": " fed",
  "5358": " crunchy",
  "5359": " Sharing",
  "5360": " Uncle",
  "5361": " peanuts",
  "5362": " whistled",
  "5363": " price",
  "5364": " Sure",
  "5365": "Jill",
  "5366": "-seek",
  "5367": " Thomas",
  "5368": " meow",
  "5369": " hurried",
  "5370": " hist",
  "5371": " officer",
  "5372": " Kay",
  "5373": "Ouch",
  "5374": " brick",
  "5375": " Chloe",
  "5376": " accom",
  "5377": " tremb",
  "5378": " refreshed",
  "5379": " pies",
  "5380": " remem",
  "5381": " flap",
  "5382": " works",
  "5383": " clearing",
  "5384": "nie",
  "5385": " operation",
  "5386": " prepared",
  "5387": " remembers",
  "5388": " bowed",
  "5389": " scratched",
  "5390": " history",
  "5391": " exa",
  "5392": " lips",
  "5393": "aded",
  "5394": "amb",
  "5395": " fireworks",
  "5396": " prune",
  "5397": "Really",
  "5398": "€œWe",
  "5399": " escaped",
  "5400": " dinosaurs",
  "5401": " menu",
  "5402": " bridges",
  "5403": " talent",
  "5404": " planted",
  "5405": " Nut",
  "5406": " buildings",
  "5407": " Ad",
  "5408": " revealed",
  "5409": " easier",
  "5410": " bye",
  "5411": " turning",
  "5412": " comfy",
  "5413": " screams",
  "5414": " olive",
  "5415": " brand",
  "5416": " hated",
  "5417": " Pr",
  "5418": " selling",
  "5419": " chat",
  "5420": " snowball",
  "5421": "die",
  "5422": " recognized",
  "5423": " accompl",
  "5424": " warn",
  "5425": " crept",
  "5426": " Am",
  "5427": " precious",
  "5428": " landsc",
  "5429": " Sadly",
  "5430": " strip",
  "5431": " muddy",
  "5432": " padd",
  "5433": " Josh",
  "5434": " By",
  "5435": " wid",
  "5436": " drinking",
  "5437": " sings",
  "5438": "xygen",
  "5439": " beds",
  "5440": " pupp",
  "5441": " An",
  "5442": " Chirp",
  "5443": "ecture",
  "5444": " earthquake",
  "5445": " settle",
  "5446": " simple",
  "5447": "cc",
  "5448": " effort",
  "5449": " reminder",
  "5450": " spaceship",
  "5451": " measuring",
  "5452": " slip",
  "5453": " perched",
  "5454": " lecture",
  "5455": " bones",
  "5456": " served",
  "5457": " appear",
  "5458": " wonders",
  "5459": " shadows",
  "5460": " voices",
  "5461": " waits",
  "5462": "€œCan",
  "5463": " vel",
  "5464": " cuddle",
  "5465": " pedal",
  "5466": " everyday",
  "5467": "Billy",
  "5468": " pitch",
  "5469": " comforted",
  "5470": " agreement",
  "5471": " responsible",
  "5472": " circus",
  "5473": " rained",
  "5474": " obey",
  "5475": "ffic",
  "5476": " vict",
  "5477": " tip",
  "5478": " soared",
  "5479": " allow",
  "5480": " anytime",
  "5481": " trapped",
  "5482": " cal",
  "5483": " whatever",
  "5484": " zigzag",
  "5485": " tastes",
  "5486": " Jamie",
  "5487": " landscape",
  "5488": " apologize",
  "5489": " cutting",
  "5490": " succeeded",
  "5491": " shopping",
  "5492": " rang",
  "5493": " secrets",
  "5494": " pets",
  "5495": " Cla",
  "5496": " villag",
  "5497": " velvet",
  "5498": " printer",
  "5499": " disturbed",
  "5500": " Pip",
  "5501": " waist",
  "5502": " items",
  "5503": " swims",
  "5504": " bun",
  "5505": " Ol",
  "5506": " traffic",
  "5507": " practicing",
  "5508": " steel",
  "5509": " bringing",
  "5510": " oats",
  "5511": " exactly",
  "5512": " sisters",
  "5513": " rested",
  "5514": " visiting",
  "5515": " activ",
  "5516": " costumes",
  "5517": "annah",
  "5518": " scoop",
  "5519": " answers",
  "5520": " Lu",
  "5521": "izing",
  "5522": " olives",
  "5523": "Daddy",
  "5524": "ien",
  "5525": "mble",
  "5526": " Anne",
  "5527": " brushed",
  "5528": "rs",
  "5529": " style",
  "5530": " mouths",
  "5531": " soak",
  "5532": " curiosity",
  "5533": " For",
  "5534": "ishes",
  "5535": " outdo",
  "5536": "neath",
  "5537": " breaking",
  "5538": " fashion",
  "5539": " owned",
  "5540": " rele",
  "5541": " Nina",
  "5542": " ladyb",
  "5543": " encourage",
  "5544": "€œDon",
  "5545": " Ke",
  "5546": " fascinated",
  "5547": " knelt",
  "5548": " Big",
  "5549": " leather",
  "5550": "oming",
  "5551": "mare",
  "5552": " image",
  "5553": "iggy",
  "5554": " villagers",
  "5555": " nails",
  "5556": " Rob",
  "5557": " beneath",
  "5558": " underground",
  "5559": "icorn",
  "5560": " waffles",
  "5561": " Coco",
  "5562": " unicorn",
  "5563": " sadness",
  "5564": " These",
  "5565": "enty",
  "5566": " Lucky",
  "5567": " Itâ",
  "5568": " Floppy",
  "5569": "terday",
  "5570": " unlocked",
  "5571": "inda",
  "5572": " recognize",
  "5573": " died",
  "5574": " downstairs",
  "5575": " creation",
  "5576": " catching",
  "5577": " grandmother",
  "5578": " oxygen",
  "5579": "isten",
  "5580": " monsters",
  "5581": " tremble",
  "5582": " six",
  "5583": " chef",
  "5584": " eats",
  "5585": " Mad",
  "5586": " Nutty",
  "5587": " pupil",
  "5588": "ik",
  "5589": "Spot",
  "5590": " wanting",
  "5591": " nightmare",
  "5592": " jogged",
  "5593": " cape",
  "5594": " Gr",
  "5595": " stripes",
  "5596": " doctors",
  "5597": " Rabbit",
  "5598": " Claire",
  "5599": " soaring",
  "5600": " blueberry",
  "5601": " Something",
  "5602": "ley",
  "5603": " struggled",
  "5604": " lemons",
  "5605": " Ow",
  "5606": " wondering",
  "5607": " bleeding",
  "5608": " punished",
  "5609": " gained",
  "5610": "She",
  "5611": " famil",
  "5612": " fetch",
  "5613": " examined",
  "5614": " nicer",
  "5615": " Hop",
  "5616": " guessed",
  "5617": " planned",
  "5618": " drag",
  "5619": " caut",
  "5620": " situ",
  "5621": " machines",
  "5622": " mission",
  "5623": " Tiny",
  "5624": " stealing",
  "5625": " argued",
  "5626": " area",
  "5627": " comple",
  "5628": " piles",
  "5629": " herbs",
  "5630": " freeze",
  "5631": " introduc",
  "5632": "len",
  "5633": " stirring",
  "5634": " Lul",
  "5635": "Gra",
  "5636": " ripped",
  "5637": " challenge",
  "5638": " tugged",
  "5639": " Betty",
  "5640": " studied",
  "5641": " firemen",
  "5642": " Tilly",
  "5643": " bend",
  "5644": " bare",
  "5645": " wagging",
  "5646": " zooming",
  "5647": " accidents",
  "5648": " victory",
  "5649": " satisfied",
  "5650": "Little",
  "5651": " Carl",
  "5652": " wreck",
  "5653": " instruct",
  "5654": " properly",
  "5655": " keys",
  "5656": " winning",
  "5657": " shivering",
  "5658": "looking",
  "5659": " bunnies",
  "5660": " increase",
  "5661": "agull",
  "5662": " gathering",
  "5663": " tune",
  "5664": "ding",
  "5665": "Or",
  "5666": " mice",
  "5667": " exit",
  "5668": " firefight",
  "5669": " outdoors",
  "5670": " winner",
  "5671": " twirling",
  "5672": " si",
  "5673": " slapped",
  "5674": " loaded",
  "5675": " teasing",
  "5676": " peel",
  "5677": " decorated",
  "5678": "xu",
  "5679": " deser",
  "5680": " supplies",
  "5681": " yelling",
  "5682": " neighbourhood",
  "5683": " seagull",
  "5684": " underneath",
  "5685": " permit",
  "5686": "-looking",
  "5687": " sights",
  "5688": " tickets",
  "5689": " ann",
  "5690": " Chirpy",
  "5691": " pancakes",
  "5692": " Hannah",
  "5693": " Jessie",
  "5694": "oh",
  "5695": " begin",
  "5696": " burrow",
  "5697": " pearl",
  "5698": " rides",
  "5699": " siren",
  "5700": " peaches",
  "5701": " Lulu",
  "5702": " mixing",
  "5703": " Sl",
  "5704": " released",
  "5705": " draws",
  "5706": " weighed",
  "5707": "aky",
  "5708": " sneaked",
  "5709": " Matt",
  "5710": "ica",
  "5711": " Aunt",
  "5712": "uxu",
  "5713": "indy",
  "5714": ".'",
  "5715": " confident",
  "5716": " realize",
  "5717": " instructions",
  "5718": " Bubbles",
  "5719": "ales",
  "5720": " spiders",
  "5721": " Susan",
  "5722": " introduce",
  "5723": " luxu",
  "5724": " muffins",
  "5725": " dam",
  "5726": " contro",
  "5727": "-b",
  "5728": " letâ",
  "5729": " pinched",
  "5730": " budge",
  "5731": " solut",
  "5732": " Adam",
  "5733": " zero",
  "5734": " competition",
  "5735": " Abby",
  "5736": " printed",
  "5737": " studying",
  "5738": " loving",
  "5739": " Did",
  "5740": " Out",
  "5741": " beha",
  "5742": " Car",
  "5743": " pockets",
  "5744": " inch",
  "5745": " baked",
  "5746": " struck",
  "5747": "€œLook",
  "5748": " shoulders",
  "5749": " bunch",
  "5750": " opin",
  "5751": " Like",
  "5752": " frosting",
  "5753": " lines",
  "5754": " release",
  "5755": "Goodbye",
  "5756": " decides",
  "5757": " giggling",
  "5758": "Happy",
  "5759": " broom",
  "5760": " ourselves",
  "5761": " web",
  "5762": " pastel",
  "5763": " stamps",
  "5764": " travell",
  "5765": " cones",
  "5766": "nes",
  "5767": " emergen",
  "5768": "€œHello",
  "5769": " stair",
  "5770": " stitch",
  "5771": "bbing",
  "5772": " Stop",
  "5773": " prunes",
  "5774": " ladybug",
  "5775": " sides",
  "5776": "oed",
  "5777": " grant",
  "5778": " scurried",
  "5779": "€”",
  "5780": " strings",
  "5781": " tim",
  "5782": "ena",
  "5783": "ais",
  "5784": " marks",
  "5785": " ruler",
  "5786": " pears",
  "5787": "gers",
  "5788": "Ex",
  "5789": "ednes",
  "5790": "ednesday",
  "5791": " repeated",
  "5792": " drift",
  "5793": " keeps",
  "5794": " ago",
  "5795": " claps",
  "5796": " poking",
  "5797": "€œThis",
  "5798": "anta",
  "5799": "Ye",
  "5800": " crowd",
  "5801": "ays",
  "5802": " ruin",
  "5803": " Bir",
  "5804": " prints",
  "5805": "kins",
  "5806": " brushes",
  "5807": " kicking",
  "5808": " stretching",
  "5809": " demanded",
  "5810": " sting",
  "5811": " neighbors",
  "5812": " Wednesday",
  "5813": " mentioned",
  "5814": " Mart",
  "5815": "ira",
  "5816": " mast",
  "5817": "owers",
  "5818": " touching",
  "5819": " tonight",
  "5820": " protected",
  "5821": " writes",
  "5822": " sweeties",
  "5823": " Lou",
  "5824": " goodnight",
  "5825": " Zoom",
  "5826": "uesday",
  "5827": " youth",
  "5828": " buckets",
  "5829": " ribbons",
  "5830": "va",
  "5831": "jam",
  "5832": "uctantly",
  "5833": "tiest",
  "5834": "ashed",
  "5835": "bies",
  "5836": " prettiest",
  "5837": "ody",
  "5838": " Santa",
  "5839": " forgi",
  "5840": " vent",
  "5841": " parked",
  "5842": " text",
  "5843": "icky",
  "5844": " project",
  "5845": " camping",
  "5846": " soaked",
  "5847": "zie",
  "5848": " barely",
  "5849": " horns",
  "5850": " bouncy",
  "5851": "exp",
  "5852": " Linda",
  "5853": "icked",
  "5854": " Both",
  "5855": "riage",
  "5856": " Ju",
  "5857": " discovering",
  "5858": "hins",
  "5859": " Tuesday",
  "5860": "€œDonâ",
  "5861": " east",
  "5862": " twinkling",
  "5863": " result",
  "5864": " expect",
  "5865": " surface",
  "5866": " sorting",
  "5867": " stole",
  "5868": " dent",
  "5869": "€œWhy",
  "5870": " west",
  "5871": " interest",
  "5872": "Ah",
  "5873": " vowed",
  "5874": " texture",
  "5875": " gazed",
  "5876": " Momo",
  "5877": " purred",
  "5878": " guys",
  "5879": " steep",
  "5880": " Afterwards",
  "5881": " babies",
  "5882": " shock",
  "5883": " beard",
  "5884": " movies",
  "5885": " cautious",
  "5886": "expected",
  "5887": " Kayla",
  "5888": "zen",
  "5889": " Jeff",
  "5890": " applauded",
  "5891": " powers",
  "5892": " silence",
  "5893": " Hoppy",
  "5894": "thank",
  "5895": " pebbles",
  "5896": " entire",
  "5897": " loose",
  "5898": " control",
  "5899": " tickle",
  "5900": " guns",
  "5901": " urged",
  "5902": " dragons",
  "5903": " Luke",
  "5904": " acted",
  "5905": " dragged",
  "5906": " unexpected",
  "5907": " luxury",
  "5908": "edding",
  "5909": " catches",
  "5910": "ern",
  "5911": "Uh",
  "5912": "ason",
  "5913": " mittens",
  "5914": " muscles",
  "5915": " chewing",
  "5916": " rocking",
  "5917": " flat",
  "5918": " fab",
  "5919": " fabric",
  "5920": " completed",
  "5921": " dolphins",
  "5922": " curtains",
  "5923": " emergency",
  "5924": " blink",
  "5925": " introduced",
  "5926": "une",
  "5927": " direction",
  "5928": " chips",
  "5929": " honk",
  "5930": " season",
  "5931": " patience",
  "5932": " strike",
  "5933": " importance",
  "5934": " Lizzy",
  "5935": "eezing",
  "5936": " reluctantly",
  "5937": " bank",
  "5938": " eight",
  "5939": " slim",
  "5940": "usted",
  "5941": " figured",
  "5942": " highest",
  "5943": " shivered",
  "5944": " Ha",
  "5945": " frozen",
  "5946": " librarian",
  "5947": " solution",
  "5948": " contest",
  "5949": " rocked",
  "5950": " achieve",
  "5951": " screaming",
  "5952": " chases",
  "5953": " replac",
  "5954": " pouring",
  "5955": " Jenna",
  "5956": " shelves",
  "5957": " wound",
  "5958": " theirs",
  "5959": " crumb",
  "5960": " rubbing",
  "5961": "esome",
  "5962": " ti",
  "5963": " hugging",
  "5964": " drives",
  "5965": " staring",
  "5966": " sorted",
  "5967": " snail",
  "5968": "Remember",
  "5969": " roaring",
  "5970": "€œOh",
  "5971": "ledge",
  "5972": " include",
  "5973": "-f",
  "5974": " planets",
  "5975": "Somet",
  "5976": " mater",
  "5977": " materi",
  "5978": " safer",
  "5979": " policeman",
  "5980": " curly",
  "5981": " situation",
  "5982": " foods",
  "5983": "fit",
  "5984": " greet",
  "5985": " awesome",
  "5986": " canâ",
  "5987": " usual",
  "5988": "vin",
  "5989": " sighs",
  "5990": " knowledge",
  "5991": "itely",
  "5992": "irts",
  "5993": " Yes",
  "5994": " passing",
  "5995": " shined",
  "5996": " flags",
  "5997": " exha",
  "5998": " dared",
  "5999": " balancing",
  "6000": " plenty",
  "6001": " Suzie",
  "6002": " tru",
  "6003": " youâ",
  "6004": " matched",
  "6005": " towels",
  "6006": " lied",
  "6007": "ults",
  "6008": " homework",
  "6009": " outfit",
  "6010": "though",
  "6011": " slimy",
  "6012": " bravery",
  "6013": " Dolly",
  "6014": " truly",
  "6015": " pretends",
  "6016": " Jac",
  "6017": "avi",
  "6018": " zookeeper",
  "6019": " cheering",
  "6020": " heel",
  "6021": " wedding",
  "6022": " goals",
  "6023": " rainbows",
  "6024": "jamas",
  "6025": " sausages",
  "6026": "Just",
  "6027": " Cindy",
  "6028": "cuse",
  "6029": " threat",
  "6030": "Today",
  "6031": " accomplish",
  "6032": " patted",
  "6033": " caused",
  "6034": " paintings",
  "6035": " reaching",
  "6036": " Slow",
  "6037": " resting",
  "6038": " Always",
  "6039": " Pinky",
  "6040": " radishes",
  "6041": " arguing",
  "6042": " Ex",
  "6043": " Quack",
  "6044": " packing",
  "6045": "Excuse",
  "6046": "bert",
  "6047": " growling",
  "6048": " spraying",
  "6049": " blooming",
  "6050": " waiter",
  "6051": " exhausted",
  "6052": "iar",
  "6053": " ge",
  "6054": " struggle",
  "6055": "izzie",
  "6056": " sweets",
  "6057": " sticking",
  "6058": " pout",
  "6059": "ences",
  "6060": " markers",
  "6061": " motion",
  "6062": " worker",
  "6063": " kneeled",
  "6064": " paddled",
  "6065": " growl",
  "6066": " sled",
  "6067": "immer",
  "6068": " suitc",
  "6069": " mane",
  "6070": "When",
  "6071": " sway",
  "6072": " startled",
  "6073": " snugg",
  "6074": " cubes",
  "6075": " rescued",
  "6076": " spike",
  "6077": " written",
  "6078": " dusty",
  "6079": " traveled",
  "6080": " inviting",
  "6081": " boo",
  "6082": "hello",
  "6083": " expected",
  "6084": " Jacob",
  "6085": " Jon",
  "6086": " bead",
  "6087": " slap",
  "6088": " cuts",
  "6089": " bottles",
  "6090": " cent",
  "6091": " matching",
  "6092": " guest",
  "6093": " Tara",
  "6094": " singer",
  "6095": " flavor",
  "6096": " reveal",
  "6097": " Mon",
  "6098": " learns",
  "6099": " heav",
  "6100": "lee",
  "6101": " princesses",
  "6102": " creating",
  "6103": " regretted",
  "6104": " fart",
  "6105": " bloomed",
  "6106": "Yeah",
  "6107": " trembling",
  "6108": " replaced",
  "6109": " fir",
  "6110": " arrive",
  "6111": " marriage",
  "6112": " Mick",
  "6113": " Julia",
  "6114": "pite",
  "6115": " recorded",
  "6116": "aisies",
  "6117": " Lizzie",
  "6118": " pencils",
  "6119": " included",
  "6120": " chuck",
  "6121": " lap",
  "6122": "...",
  "6123": " observed",
  "6124": " disagree",
  "6125": "njoy",
  "6126": " Lena",
  "6127": " Jessica",
  "6128": " pots",
  "6129": " daisies",
  "6130": " activities",
  "6131": " prayer",
  "6132": " firm",
  "6133": " timer",
  "6134": " Pipp",
  "6135": " pajamas",
  "6136": " roads",
  "6137": " Mil",
  "6138": " wires",
  "6139": "Ch",
  "6140": " darkness",
  "6141": " removed",
  "6142": " worries",
  "6143": " uses",
  "6144": " ventured",
  "6145": " countryside",
  "6146": " organizing",
  "6147": " stare",
  "6148": " completely",
  "6149": " workers",
  "6150": " opening",
  "6151": " fairies",
  "6152": " relief",
  "6153": " wasted",
  "6154": "angled",
  "6155": " leap",
  "6156": " reply",
  "6157": " owners",
  "6158": " Mo",
  "6159": " storekeeper",
  "6160": " cott",
  "6161": " belly",
  "6162": "vers",
  "6163": " ranger",
  "6164": " fault",
  "6165": " Johnson",
  "6166": " Fox",
  "6167": " partic",
  "6168": " unf",
  "6169": " quacked",
  "6170": " polishing",
  "6171": " leader",
  "6172": " stern",
  "6173": "ora",
  "6174": "iding",
  "6175": " becoming",
  "6176": " Friend",
  "6177": " flames",
  "6178": " lamb",
  "6179": " kites",
  "6180": "ctions",
  "6181": " Slowly",
  "6182": " agrees",
  "6183": " poems",
  "6184": " penguins",
  "6185": " wasnâ",
  "6186": " faced",
  "6187": " Mel",
  "6188": "Sometimes",
  "6189": " Christ",
  "6190": " everybody",
  "6191": " seesaw",
  "6192": " Y",
  "6193": " folding",
  "6194": " melting",
  "6195": " scales",
  "6196": " squealed",
  "6197": " thro",
  "6198": " healed",
  "6199": " vanish",
  "6200": "you",
  "6201": " helmets",
  "6202": " Jones",
  "6203": " wink",
  "6204": " logs",
  "6205": "ords",
  "6206": " crabs",
  "6207": " throat",
  "6208": "hell",
  "6209": " Leave",
  "6210": " usually",
  "6211": " opinion",
  "6212": " crumbs",
  "6213": " tractor",
  "6214": " ripe",
  "6215": "Ro",
  "6216": " dipped",
  "6217": "opes",
  "6218": "lings",
  "6219": " Follow",
  "6220": " scra",
  "6221": " Two",
  "6222": " seems",
  "6223": " twinkle",
  "6224": " ast",
  "6225": " lollipops",
  "6226": " risk",
  "6227": " cash",
  "6228": " teaches",
  "6229": " Bye",
  "6230": " comm",
  "6231": " groceries",
  "6232": " Mira",
  "6233": " den",
  "6234": "ids",
  "6235": " knights",
  "6236": "ivery",
  "6237": "asm",
  "6238": " provided",
  "6239": " dentist",
  "6240": " valued",
  "6241": " polished",
  "6242": " staying",
  "6243": " peeking",
  "6244": "elle",
  "6245": "aze",
  "6246": " snakes",
  "6247": " scru",
  "6248": " interested",
  "6249": " Watch",
  "6250": " blows",
  "6251": " rubs",
  "6252": " cautiously",
  "6253": " Put",
  "6254": " cracked",
  "6255": " rings",
  "6256": " united",
  "6257": "araway",
  "6258": " faraway",
  "6259": " desert",
  "6260": " Sorry",
  "6261": " protecting",
  "6262": " misses",
  "6263": " winked",
  "6264": " freed",
  "6265": " marked",
  "6266": " Bird",
  "6267": " younger",
  "6268": " wandering",
  "6269": " closes",
  "6270": " wrist",
  "6271": " balanced",
  "6272": "mas",
  "6273": " chuckled",
  "6274": " fuzzy",
  "6275": " Many",
  "6276": " Larry",
  "6277": " listens",
  "6278": " pastries",
  "6279": " forehead",
  "6280": " single",
  "6281": " signed",
  "6282": "go",
  "6283": " Nan",
  "6284": " robb",
  "6285": " beads",
  "6286": " particular",
  "6287": " roses",
  "6288": " June",
  "6289": " boom",
  "6290": " actions",
  "6291": " Doggy",
  "6292": " Lau",
  "6293": " directions",
  "6294": " however",
  "6295": "€œMommy",
  "6296": " copy",
  "6297": "igi",
  "6298": " splashes",
  "6299": " cough",
  "6300": "rance",
  "6301": " crackers",
  "6302": " Bess",
  "6303": "-oh",
  "6304": " baker",
  "6305": " naps",
  "6306": " cous",
  "6307": " Sophia",
  "6308": "hile",
  "6309": " roots",
  "6310": "ppers",
  "6311": " filling",
  "6312": " Without",
  "6313": " yesterday",
  "6314": " snowballs",
  "6315": " Prin",
  "6316": "€œWhatâ",
  "6317": " restored",
  "6318": " El",
  "6319": " fluttered",
  "6320": " delivery",
  "6321": " Happy",
  "6322": " rolls",
  "6323": "abel",
  "6324": "arling",
  "6325": " conn",
  "6326": " stem",
  "6327": " swooped",
  "6328": "dies",
  "6329": " gaze",
  "6330": " suitcase",
  "6331": " wiggled",
  "6332": " tipt",
  "6333": " Abbie",
  "6334": " somebody",
  "6335": " sweat",
  "6336": " Christmas",
  "6337": "Bad",
  "6338": " itchy",
  "6339": " bumpy",
  "6340": " refle",
  "6341": "bbly",
  "6342": " swirl",
  "6343": " slam",
  "6344": " photos",
  "6345": "˜",
  "6346": "€˜",
  "6347": " Everybody",
  "6348": " stroll",
  "6349": "oline",
  "6350": "Then",
  "6351": " twin",
  "6352": " pastels",
  "6353": " celebration",
  "6354": " trips",
  "6355": " pedals",
  "6356": " Gigi",
  "6357": " backed",
  "6358": " tallest",
  "6359": " Keep",
  "6360": " Nothing",
  "6361": " awake",
  "6362": " froze",
  "6363": " cause",
  "6364": " cashier",
  "6365": "ddled",
  "6366": " Mickey",
  "6367": " nect",
  "6368": " remote",
  "6369": " lined",
  "6370": " nectar",
  "6371": " darker",
  "6372": " determination",
  "6373": "ility",
  "6374": " Laura",
  "6375": " speaking",
  "6376": " secure",
  "6377": "ormed",
  "6378": " Sparky",
  "6379": " knees",
  "6380": "-boo",
  "6381": " wow",
  "6382": " piggy",
  "6383": "anes",
  "6384": " complaining",
  "6385": " Sque",
  "6386": " bars",
  "6387": " Being",
  "6388": " recording",
  "6389": " sneaky",
  "6390": " videos",
  "6391": " silent",
  "6392": " Pandy",
  "6393": "Run",
  "6394": "oys",
  "6395": " health",
  "6396": " accomplishment",
  "6397": " liqu",
  "6398": " pleasure",
  "6399": " acting",
  "6400": "?\",",
  "6401": " Exc",
  "6402": " entrance",
  "6403": " ty",
  "6404": "atches",
  "6405": " wears",
  "6406": " rockets",
  "6407": " delivered",
  "6408": " miles",
  "6409": " glee",
  "6410": " insp",
  "6411": " coloured",
  "6412": "esmer",
  "6413": " hi",
  "6414": " Nick",
  "6415": " opp",
  "6416": " Enjoy",
  "6417": " tricked",
  "6418": " mesmer",
  "6419": " Pam",
  "6420": "sequ",
  "6421": "boat",
  "6422": " Emmy",
  "6423": " cheeks",
  "6424": " aff",
  "6425": " bey",
  "6426": " beyond",
  "6427": " afterwards",
  "6428": " Jazz",
  "6429": " noon",
  "6430": " sib",
  "6431": " consequ",
  "6432": " stays",
  "6433": " hissed",
  "6434": " insects",
  "6435": " glasses",
  "6436": " bowls",
  "6437": "ky",
  "6438": "umm",
  "6439": " Excited",
  "6440": " joking",
  "6441": " tickled",
  "6442": " sobbed",
  "6443": " farther",
  "6444": " burst",
  "6445": " colored",
  "6446": "affes",
  "6447": " scaring",
  "6448": " Jay",
  "6449": " Days",
  "6450": " stolen",
  "6451": " Stella",
  "6452": "Fine",
  "6453": " attack",
  "6454": " Buzzy",
  "6455": " sense",
  "6456": " sandcastles",
  "6457": "Grandma",
  "6458": " tricky",
  "6459": " rule",
  "6460": " masks",
  "6461": " covers",
  "6462": "iki",
  "6463": " Ma",
  "6464": " deal",
  "6465": " instrum",
  "6466": " giraffes",
  "6467": " calmed",
  "6468": "€œCome",
  "6469": " handful",
  "6470": "?'",
  "6471": " talented",
  "6472": " Squ",
  "6473": " pause",
  "6474": " tangled",
  "6475": " indeed",
  "6476": " adding",
  "6477": "aren",
  "6478": " smarter",
  "6479": " candies",
  "6480": " scarves",
  "6481": "ths",
  "6482": " achieved",
  "6483": " lung",
  "6484": " shirts",
  "6485": " choices",
  "6486": " consequences",
  "6487": " liquid",
  "6488": "ossible",
  "6489": " yourselves",
  "6490": " Princess",
  "6491": "rious",
  "6492": " behavi",
  "6493": " leading",
  "6494": "weet",
  "6495": " bumps",
  "6496": " reads",
  "6497": " batteries",
  "6498": " hesitated",
  "6499": "igers",
  "6500": "choo",
  "6501": " impossible",
  "6502": " badge",
  "6503": "ept",
  "6504": " Els",
  "6505": " paddle",
  "6506": " mixture",
  "6507": " Robert",
  "6508": " Get",
  "6509": " Maya",
  "6510": " explorers",
  "6511": "iled",
  "6512": " darling",
  "6513": " magnets",
  "6514": "ouch",
  "6515": " clowns",
  "6516": " kicks",
  "6517": "Shh",
  "6518": "-t",
  "6519": " recommended",
  "6520": " Chris",
  "6521": " weeping",
  "6522": " Snugg",
  "6523": " gracefully",
  "6524": " Milo",
  "6525": " experien",
  "6526": "ners",
  "6527": " seashell",
  "6528": " Bee",
  "6529": " Tess",
  "6530": " seeker",
  "6531": " bakery",
  "6532": " firefighters",
  "6533": " Mikey",
  "6534": "anging",
  "6535": " Olive",
  "6536": " Zip",
  "6537": " salty",
  "6538": "brush",
  "6539": "vest",
  "6540": " improved",
  "6541": " Ry",
  "6542": " swept",
  "6543": "rig",
  "6544": "atul",
  "6545": "coat",
  "6546": " deserve",
  "6547": " stroked",
  "6548": " Robby",
  "6549": " beginning",
  "6550": " wipes",
  "6551": " flapping",
  "6552": " complained",
  "6553": " mushrooms",
  "6554": "urry",
  "6555": "Whe",
  "6556": "Those",
  "6557": " Pl",
  "6558": " hider",
  "6559": "obody",
  "6560": "itches",
  "6561": " Po",
  "6562": " knocks",
  "6563": " steer",
  "6564": " cust",
  "6565": " seven",
  "6566": " cans",
  "6567": " thorn",
  "6568": " teased",
  "6569": " Snuggles",
  "6570": " objects",
  "6571": " parties",
  "6572": "€œDo",
  "6573": " Martha",
  "6574": " travelled",
  "6575": " Cu",
  "6576": " third",
  "6577": " hearing",
  "6578": " Granny",
  "6579": " basement",
  "6580": " tigers",
  "6581": " cupcakes",
  "6582": " horiz",
  "6583": "iles",
  "6584": " click",
  "6585": "€œYouâ",
  "6586": " heading",
  "6587": " snuck",
  "6588": " fever",
  "6589": " Dr",
  "6590": "tle",
  "6591": " seconds",
  "6592": " dots",
  "6593": " raincoat",
  "6594": " Rock",
  "6595": " horizon",
  "6596": " siblings",
  "6597": " Abi",
  "6598": "elia",
  "6599": "no",
  "6600": " performance",
  "6601": " smiley",
  "6602": " custom",
  "6603": " Sc",
  "6604": " artist",
  "6605": " hallway",
  "6606": " beam",
  "6607": " marker",
  "6608": " snatched",
  "6609": " Thanks",
  "6610": " lighter",
  "6611": " jackets",
  "6612": " yells",
  "6613": " fluttering",
  "6614": " drums",
  "6615": "indr",
  "6616": "€œHi",
  "6617": "come",
  "6618": " Ryan",
  "6619": "step",
  "6620": "pare",
  "6621": " ruining",
  "6622": "ans",
  "6623": " gems",
  "6624": " bedtime",
  "6625": "Next",
  "6626": "igning",
  "6627": " wouldnâ",
  "6628": " Water",
  "6629": " raindr",
  "6630": " neither",
  "6631": " Che",
  "6632": " concer",
  "6633": " buying",
  "6634": " Along",
  "6635": "rigued",
  "6636": " puppies",
  "6637": " lett",
  "6638": " paying",
  "6639": " scrubbed",
  "6640": " celebrating",
  "6641": " families",
  "6642": " dollhouse",
  "6643": " annoy",
  "6644": "€œWow",
  "6645": " creamy",
  "6646": " lettuce",
  "6647": "band",
  "6648": " among",
  "6649": "umbling",
  "6650": " peacefully",
  "6651": " rivers",
  "6652": " scratches",
  "6653": " wrapping",
  "6654": "river",
  "6655": " widened",
  "6656": " drifted",
  "6657": " rumble",
  "6658": " tasks",
  "6659": "ivity",
  "6660": "atur",
  "6661": "ades",
  "6662": " treehouse",
  "6663": " hides",
  "6664": " wins",
  "6665": " Finn",
  "6666": " behaved",
  "6667": " repa",
  "6668": "cers",
  "6669": " rusty",
  "6670": "alph",
  "6671": " wonâ",
  "6672": " players",
  "6673": " Karen",
  "6674": " lun",
  "6675": "uzz",
  "6676": "immering",
  "6677": " cuddly",
  "6678": "ael",
  "6679": " uns",
  "6680": " fact",
  "6681": "fall",
  "6682": "ounce",
  "6683": " rewarded",
  "6684": " arrows",
  "6685": " willing",
  "6686": " Jacky",
  "6687": " lower",
  "6688": "Lucy",
  "6689": " needles",
  "6690": " source",
  "6691": " creativity",
  "6692": " shrinking",
  "6693": " Rover",
  "6694": " temper",
  "6695": " losing",
  "6696": " cor",
  "6697": " ech",
  "6698": " Mabel",
  "6699": " repaired",
  "6700": " passen",
  "6701": " fears",
  "6702": "iece",
  "6703": " grandpare",
  "6704": " including",
  "6705": " Binky",
  "6706": " choo",
  "6707": " tiptoed",
  "6708": "itched",
  "6709": " creations",
  "6710": " tapped",
  "6711": " Goodbye",
  "6712": " grassy",
  "6713": " chefs",
  "6714": "ongr",
  "6715": " def",
  "6716": " Janie",
  "6717": " Sim",
  "6718": "ded",
  "6719": " minerals",
  "6720": " separated",
  "6721": " sprinkled",
  "6722": "jo",
  "6723": " imagining",
  "6724": " rising",
  "6725": " granted",
  "6726": "ichael",
  "6727": " chop",
  "6728": " aud",
  "6729": " gross",
  "6730": " tempt",
  "6731": " aren",
  "6732": " During",
  "6733": " Robbie",
  "6734": "Le",
  "6735": " Kiki",
  "6736": " swimsuit",
  "6737": "ongratul",
  "6738": "Great",
  "6739": " tiss",
  "6740": " pans",
  "6741": " Remember",
  "6742": " limes",
  "6743": " Sadie",
  "6744": "cus",
  "6745": " stomped",
  "6746": "hog",
  "6747": " screwd",
  "6748": " coup",
  "6749": " grabbing",
  "6750": " pouted",
  "6751": " Nobody",
  "6752": " backwards",
  "6753": " spong",
  "6754": "itude",
  "6755": " decorating",
  "6756": "€œMy",
  "6757": " damage",
  "6758": " hesitant",
  "6759": "ishy",
  "6760": " printing",
  "6761": " earn",
  "6762": " peppers",
  "6763": " stung",
  "6764": "Have",
  "6765": " squares",
  "6766": " unpacked",
  "6767": "ments",
  "6768": " tramp",
  "6769": "ntil",
  "6770": " slower",
  "6771": "Time",
  "6772": " diving",
  "6773": " cowb",
  "6774": " planning",
  "6775": "\".<|",
  "6776": " beloved",
  "6777": " onions",
  "6778": "pr",
  "6779": " materials",
  "6780": " Judy",
  "6781": " heavier",
  "6782": " chip",
  "6783": " Q",
  "6784": " growls",
  "6785": " raindrops",
  "6786": " Cra",
  "6787": " wrink",
  "6788": " mer",
  "6789": " Until",
  "6790": " Marie",
  "6791": " pointy",
  "6792": " Squeaky",
  "6793": " snowmen",
  "6794": " Bluey",
  "6795": " surroundings",
  "6796": "cope",
  "6797": " promises",
  "6798": " Flop",
  "6799": " avoid",
  "6800": " screwdriver",
  "6801": " Since",
  "6802": " recipe",
  "6803": " audience",
  "6804": " cousin",
  "6805": " sailboat",
  "6806": "Meow",
  "6807": " rustling",
  "6808": " forgiven",
  "6809": " neighbours",
  "6810": " blocking",
  "6811": "Yummy",
  "6812": " center",
  "6813": " hus",
  "6814": " Michael",
  "6815": " slices",
  "6816": " gobbled",
  "6817": " temperature",
  "6818": "Sammy",
  "6819": " wiping",
  "6820": " weekend",
  "6821": "eds",
  "6822": " touc",
  "6823": " trampoline",
  "6824": " hedgehog",
  "6825": " Earth",
  "6826": "ueen",
  "6827": " refu",
  "6828": " helpers",
  "6829": " arr",
  "6830": "ably",
  "6831": " wobbled",
  "6832": " windy",
  "6833": " rip",
  "6834": " couple",
  "6835": " stool",
  "6836": " discussed",
  "6837": "sty",
  "6838": " designed",
  "6839": " ornaments",
  "6840": " dreamt",
  "6841": "itted",
  "6842": " noses",
  "6843": "Oops",
  "6844": " corners",
  "6845": "ne",
  "6846": " Maddie",
  "6847": " Todd",
  "6848": "yes",
  "6849": "10",
  "6850": " Simon",
  "6851": "child",
  "6852": " pecked",
  "6853": " slammed",
  "6854": "unched",
  "6855": "int",
  "6856": " swans",
  "6857": " afford",
  "6858": "iley",
  "6859": " Gina",
  "6860": "Rex",
  "6861": " feast",
  "6862": "Ew",
  "6863": " sports",
  "6864": " hitting",
  "6865": "oey",
  "6866": "Roar",
  "6867": " age",
  "6868": " streets",
  "6869": " wag",
  "6870": " tissue",
  "6871": " Far",
  "6872": " dads",
  "6873": " ache",
  "6874": " aside",
  "6875": " Jackie",
  "6876": "ccoon",
  "6877": " sponge",
  "6878": " raccoon",
  "6879": "cl",
  "6880": " requested",
  "6881": " stain",
  "6882": " Back",
  "6883": " meals",
  "6884": " curiously",
  "6885": " forks",
  "6886": "Jenny",
  "6887": " reflection",
  "6888": " sunflowers",
  "6889": " snowfl",
  "6890": " warnings",
  "6891": " tails",
  "6892": "arrow",
  "6893": " Ralph",
  "6894": " Zoey",
  "6895": " dances",
  "6896": " prett",
  "6897": " plans",
  "6898": " bows",
  "6899": " vanilla",
  "6900": "ido",
  "6901": "cky",
  "6902": " familiar",
  "6903": " shaped",
  "6904": " Queen",
  "6905": " sparks",
  "6906": " det",
  "6907": " Although",
  "6908": " leaning",
  "6909": " gri",
  "6910": " dollars",
  "6911": "Jane",
  "6912": " Those",
  "6913": " remembering",
  "6914": " coloring",
  "6915": " adult",
  "6916": " breathed",
  "6917": " greeted",
  "6918": " intrigued",
  "6919": " sale",
  "6920": " screws",
  "6921": " grandchild",
  "6922": "ition",
  "6923": " duckling",
  "6924": " spreading",
  "6925": " forgets",
  "6926": " gasp",
  "6927": "osen",
  "6928": " chosen",
  "6929": " astron",
  "6930": " Zara",
  "6931": " shops",
  "6932": " thrown",
  "6933": " prettier",
  "6934": " praying",
  "6935": " twice",
  "6936": " tunnels",
  "6937": " Hoot",
  "6938": " Ash",
  "6939": "aker",
  "6940": " hour",
  "6941": " potion",
  "6942": "--",
  "6943": " enthusi",
  "6944": " touches",
  "6945": " astronaut",
  "6946": " swords",
  "6947": "-bye",
  "6948": " enthusiasm",
  "6949": " husband",
  "6950": "ertain",
  "6951": "arac",
  "6952": " sailors",
  "6953": " Our",
  "6954": " gardener",
  "6955": "otten",
  "6956": "endy",
  "6957": " moo",
  "6958": " zipping",
  "6959": " hops",
  "6960": " spikes",
  "6961": " superheroes",
  "6962": " corre",
  "6963": " reason",
  "6964": " wishing",
  "6965": " magician",
  "6966": " daring",
  "6967": " spoonful",
  "6968": " grandparents",
  "6969": " Fu",
  "6970": "arshm",
  "6971": " least",
  "6972": "shions",
  "6973": "arshmallow",
  "6974": " Amelia",
  "6975": " skunk",
  "6976": " reass",
  "6977": " changing",
  "6978": " Friends",
  "6979": " dod",
  "6980": " borrowed",
  "6981": " Li",
  "6982": " Fido",
  "6983": " scamp",
  "6984": " todd",
  "6985": " counts",
  "6986": " pens",
  "6987": " flight",
  "6988": " forgetting",
  "6989": "Alice",
  "6990": " rotten",
  "6991": " bodies",
  "6992": " encourag",
  "6993": " guests",
  "6994": " flavors",
  "6995": "Woof",
  "6996": " hopeful",
  "6997": " neare",
  "6998": "ently",
  "6999": " Star",
  "7000": " woof",
  "7001": "ounced",
  "7002": " Meg",
  "7003": " mesmerized",
  "7004": " snuggle",
  "7005": " sending",
  "7006": " heroes",
  "7007": " charac",
  "7008": " character",
  "7009": " muscle",
  "7010": "stick",
  "7011": " buzzed",
  "7012": " Sun",
  "7013": " seaw",
  "7014": " neatly",
  "7015": " grows",
  "7016": "oni",
  "7017": "wk",
  "7018": " wraps",
  "7019": " Listen",
  "7020": " steady",
  "7021": " poss",
  "7022": "Whee",
  "7023": " feeding",
  "7024": " nibb",
  "7025": " marshmallow",
  "7026": " handsome",
  "7027": "Our",
  "7028": " cond",
  "7029": " mints",
  "7030": "irrel",
  "7031": "llen",
  "7032": " delivering",
  "7033": " nine",
  "7034": " oh",
  "7035": "antha",
  "7036": " dived",
  "7037": " politely",
  "7038": "bba",
  "7039": " zebras",
  "7040": " Quick",
  "7041": " onward",
  "7042": " alien",
  "7043": " suffering",
  "7044": " napkins",
  "7045": " warmer",
  "7046": "-sh",
  "7047": "Boo",
  "7048": "Amy",
  "7049": "years",
  "7050": "-years",
  "7051": " sneezing",
  "7052": " baths",
  "7053": " honked",
  "7054": " Frog",
  "7055": "fly",
  "7056": " plain",
  "7057": " defe",
  "7058": " plucked",
  "7059": " crashing",
  "7060": " embarrass",
  "7061": " matters",
  "7062": " Under",
  "7063": " Wendy",
  "7064": " poster",
  "7065": "ection",
  "7066": " thatâ",
  "7067": " lifts",
  "7068": "meal",
  "7069": "Sally",
  "7070": " refreshing",
  "7071": "€œMom",
  "7072": " unsure",
  "7073": " seaweed",
  "7074": " Birthday",
  "7075": " lungs",
  "7076": " students",
  "7077": " increased",
  "7078": " Ali",
  "7079": " joining",
  "7080": " stands",
  "7081": " crew",
  "7082": "Some",
  "7083": "Sue",
  "7084": " toddler",
  "7085": " oatmeal",
  "7086": " scen",
  "7087": "allowed",
  "7088": " proper",
  "7089": " preparing",
  "7090": " swallowed",
  "7091": " dip",
  "7092": " Des",
  "7093": " thud",
  "7094": " glued",
  "7095": "€œBut",
  "7096": " express",
  "7097": " focu",
  "7098": " Frosty",
  "7099": " whispers",
  "7100": " Lia",
  "7101": " respond",
  "7102": " Bessie",
  "7103": "aster",
  "7104": " watering",
  "7105": " amount",
  "7106": " die",
  "7107": " ropes",
  "7108": " De",
  "7109": " toaster",
  "7110": " performed",
  "7111": " Baa",
  "7112": " Ruth",
  "7113": " starfish",
  "7114": " trembled",
  "7115": " leads",
  "7116": " presses",
  "7117": " wobbly",
  "7118": " triangles",
  "7119": " hawk",
  "7120": " lessons",
  "7121": " Farmer",
  "7122": " cushions",
  "7123": " biting",
  "7124": " postman",
  "7125": " Thatâ",
  "7126": " geese",
  "7127": " Holly",
  "7128": "while",
  "7129": "€œWell",
  "7130": " cau",
  "7131": " Momma",
  "7132": " pops",
  "7133": " dancers",
  "7134": " puff",
  "7135": " sniffs",
  "7136": " talks",
  "7137": " focused",
  "7138": " resisted",
  "7139": " scraped",
  "7140": " merry",
  "7141": " adults",
  "7142": " bully",
  "7143": " Love",
  "7144": " panicked",
  "7145": " confl",
  "7146": " rushing",
  "7147": " necklaces",
  "7148": " Mouse",
  "7149": " freedom",
  "7150": "vant",
  "7151": " flas",
  "7152": " puppet",
  "7153": " softer",
  "7154": " slips",
  "7155": " Patch",
  "7156": " firmly",
  "7157": " waddled",
  "7158": " Squirrel",
  "7159": " trot",
  "7160": "iona",
  "7161": " joyful",
  "7162": "ados",
  "7163": " firefly",
  "7164": " encouraging",
  "7165": " tested",
  "7166": " dropping",
  "7167": " wrigg",
  "7168": " drawers",
  "7169": "€œWhere",
  "7170": " Sof",
  "7171": " frowning",
  "7172": " tables",
  "7173": "onna",
  "7174": " waterfall",
  "7175": " worn",
  "7176": " wiggle",
  "7177": "the",
  "7178": "Bun",
  "7179": " Davey",
  "7180": " ev",
  "7181": " Mean",
  "7182": "ippy",
  "7183": " nervously",
  "7184": " blast",
  "7185": " Bubba",
  "7186": " Samantha",
  "7187": " faded",
  "7188": " lifting",
  "7189": "rey",
  "7190": " scampered",
  "7191": " Only",
  "7192": " Maddy",
  "7193": " drivers",
  "7194": " humans",
  "7195": " rout",
  "7196": "lets",
  "7197": " spat",
  "7198": " explo",
  "7199": " appreciation",
  "7200": " pours",
  "7201": " robber",
  "7202": " Megan",
  "7203": " firefighter",
  "7204": " drawn",
  "7205": " squeak",
  "7206": " respected",
  "7207": " pennies",
  "7208": " quarreling",
  "7209": " Stay",
  "7210": " thoughts",
  "7211": " pigeons",
  "7212": " twinkled",
  "7213": " throughout",
  "7214": " leapt",
  "7215": "retty",
  "7216": " Flopsy",
  "7217": " occ",
  "7218": " Honey",
  "7219": " stacked",
  "7220": " Ray",
  "7221": " Tuna",
  "7222": " dresser",
  "7223": "Fo",
  "7224": " Fuzzy",
  "7225": "cake",
  "7226": "Joe",
  "7227": " Fe",
  "7228": " scient",
  "7229": "rrr",
  "7230": " fits",
  "7231": " coc",
  "7232": " scientist",
  "7233": " master",
  "7234": "ears",
  "7235": " Meanwhile",
  "7236": "bird",
  "7237": "roken",
  "7238": "Every",
  "7239": " Mina",
  "7240": " bravest",
  "7241": " avocados",
  "7242": " Katy",
  "7243": "Mary",
  "7244": " strongest",
  "7245": " overcome",
  "7246": " months",
  "7247": " elf",
  "7248": "ushed",
  "7249": " polar",
  "7250": " craft",
  "7251": " Sofia",
  "7252": " playtime",
  "7253": "but",
  "7254": " san",
  "7255": " notes",
  "7256": " gonna",
  "7257": "Listen",
  "7258": " nur",
  "7259": " Take",
  "7260": "fire",
  "7261": " certain",
  "7262": " Spl",
  "7263": " manag",
  "7264": " Freddie",
  "7265": " wept",
  "7266": " Ang",
  "7267": " nood",
  "7268": " munch",
  "7269": " colder",
  "7270": " scored",
  "7271": " echoed",
  "7272": " spins",
  "7273": " convers",
  "7274": " cosy",
  "7275": "bage",
  "7276": " wakes",
  "7277": "-s",
  "7278": " Up",
  "7279": " garbage",
  "7280": " playroom",
  "7281": " designs",
  "7282": " performing",
  "7283": "eezes",
  "7284": " Eva",
  "7285": "Mine",
  "7286": " peck",
  "7287": " sank",
  "7288": " prob",
  "7289": " Fiona",
  "7290": " flown",
  "7291": " tricycle",
  "7292": " sweetest",
  "7293": " Owl",
  "7294": " prove",
  "7295": " probably",
  "7296": " forgiving",
  "7297": " marshmallows",
  "7298": " behaving",
  "7299": " gest",
  "7300": "cher",
  "7301": "rying",
  "7302": "ca",
  "7303": " pumpkins",
  "7304": "iment",
  "7305": " explorer",
  "7306": " guide",
  "7307": " robots",
  "7308": " squeezing",
  "7309": "oke",
  "7310": "please",
  "7311": " Fire",
  "7312": " tossed",
  "7313": "€œIf",
  "7314": " blinking",
  "7315": "bbling",
  "7316": " causing",
  "7317": "undred",
  "7318": " bells",
  "7319": " Ph",
  "7320": " shown",
  "7321": "Very",
  "7322": " cobwebs",
  "7323": "€œOkay",
  "7324": "urprise",
  "7325": " Despite",
  "7326": " squishy",
  "7327": "hew",
  "7328": " Jojo",
  "7329": "Like",
  "7330": " spices",
  "7331": "broken",
  "7332": " haird",
  "7333": " passengers",
  "7334": " congratul",
  "7335": " ties",
  "7336": "fus",
  "7337": " healing",
  "7338": " tighter",
  "7339": " angels",
  "7340": " mate",
  "7341": "Cl",
  "7342": " yielded",
  "7343": "ading",
  "7344": " reversed",
  "7345": "ilda",
  "7346": " pound",
  "7347": "?!\"",
  "7348": " sadd",
  "7349": " Mae",
  "7350": " aimed",
  "7351": " Curious",
  "7352": " napping",
  "7353": " Louise",
  "7354": " giggles",
  "7355": "upt",
  "7356": " pays",
  "7357": " nearly",
  "7358": " offic",
  "7359": " unw",
  "7360": " distract",
  "7361": " kittens",
  "7362": " Still",
  "7363": " instruments",
  "7364": " wider",
  "7365": " Birdy",
  "7366": "Follow",
  "7367": " reun",
  "7368": "ammy",
  "7369": "alloween",
  "7370": "mates",
  "7371": " sewing",
  "7372": " Im",
  "7373": " nuzz",
  "7374": " til",
  "7375": "aying",
  "7376": " conflict",
  "7377": " doorway",
  "7378": " Because",
  "7379": " appreciated",
  "7380": " clues",
  "7381": " inj",
  "7382": " paintbrush",
  "7383": " brushing",
  "7384": " coug",
  "7385": " shoo",
  "7386": " grandd",
  "7387": " action",
  "7388": "Watch",
  "7389": " yum",
  "7390": "Lisa",
  "7391": " Well",
  "7392": " ease",
  "7393": " loading",
  "7394": " bru",
  "7395": " passports",
  "7396": " cottage",
  "7397": "Alright",
  "7398": "onies",
  "7399": " Halloween",
  "7400": " paths",
  "7401": " heartbroken",
  "7402": " blocked",
  "7403": " merma",
  "7404": " ais",
  "7405": " Rocky",
  "7406": " laying",
  "7407": " slipping",
  "7408": "ino",
  "7409": " sweep",
  "7410": " results",
  "7411": " belts",
  "7412": " repeating",
  "7413": " anger",
  "7414": " Pen",
  "7415": " figures",
  "7416": " pins",
  "7417": " bits",
  "7418": "Johnny",
  "7419": " evil",
  "7420": " soaking",
  "7421": "antastic",
  "7422": "idey",
  "7423": " mailed",
  "7424": " within",
  "7425": " twisty",
  "7426": "asty",
  "7427": " Start",
  "7428": " twisting",
  "7429": "isc",
  "7430": " Pippin",
  "7431": " suffered",
  "7432": " Hope",
  "7433": "dding",
  "7434": " Maisy",
  "7435": " Ally",
  "7436": " connected",
  "7437": " tuck",
  "7438": " puzzled",
  "7439": "€,",
  "7440": "...\"",
  "7441": " shovels",
  "7442": " accomplished",
  "7443": " buses",
  "7444": " damaged",
  "7445": " noodles",
  "7446": " und",
  "7447": " crossing",
  "7448": " hundred",
  "7449": "ighting",
  "7450": " breathing",
  "7451": " sever",
  "7452": " behavior",
  "7453": " licking",
  "7454": " roars",
  "7455": " several",
  "7456": " responsib",
  "7457": " tying",
  "7458": " shrug",
  "7459": " bracelets",
  "7460": " risks",
  "7461": " surrendered",
  "7462": " surfing",
  "7463": " Pippa",
  "7464": " despite",
  "7465": " finishing",
  "7466": " fleas",
  "7467": " toward",
  "7468": "€œPlease",
  "7469": " encount",
  "7470": " lending",
  "7471": " Spidey",
  "7472": " streamers",
  "7473": " hairdress",
  "7474": " defin",
  "7475": " humming",
  "7476": " Green",
  "7477": "byes",
  "7478": "lves",
  "7479": " supported",
  "7480": " shady",
  "7481": " oysters",
  "7482": " awoke",
  "7483": " quieter",
  "7484": " cleaner",
  "7485": " Time",
  "7486": "Vroom",
  "7487": " luckily",
  "7488": " goodbyes",
  "7489": " whose",
  "7490": "€œOf",
  "7491": " ignoring",
  "7492": " stitches",
  "7493": " rainy",
  "7494": " rather",
  "7495": " tablet",
  "7496": "isions",
  "7497": " ponies",
  "7498": "Take",
  "7499": " edges",
  "7500": " Flo",
  "7501": " cuddles",
  "7502": " Jonny",
  "7503": "erk",
  "7504": " fantastic",
  "7505": " Eliz",
  "7506": "unity",
  "7507": "ecca",
  "7508": "eling",
  "7509": "found",
  "7510": " frowns",
  "7511": " cloudy",
  "7512": " slither",
  "7513": " Dani",
  "7514": "Surprise",
  "7515": " handing",
  "7516": " snowflakes",
  "7517": "ening",
  "7518": " final",
  "7519": " Becky",
  "7520": " sped",
  "7521": " drown",
  "7522": " Wally",
  "7523": "ppies",
  "7524": " hairdresser",
  "7525": " elbow",
  "7526": " cotton",
  "7527": " thorns",
  "7528": " Wil",
  "7529": " definitely",
  "7530": " rains",
  "7531": " coral",
  "7532": " Pretty",
  "7533": " gesture",
  "7534": " Auntie",
  "7535": " focus",
  "7536": " surv",
  "7537": " kings",
  "7538": " smallest",
  "7539": " battle",
  "7540": " sy",
  "7541": " wisely",
  "7542": "In",
  "7543": " reminding",
  "7544": "€œNow",
  "7545": " correctly",
  "7546": " vines",
  "7547": " decisions",
  "7548": " driveway",
  "7549": "crow",
  "7550": " sou",
  "7551": " Any",
  "7552": "onnie",
  "7553": " Janey",
  "7554": "athy",
  "7555": " peeled",
  "7556": " newfound",
  "7557": " X",
  "7558": " squeaked",
  "7559": " chopped",
  "7560": "whe",
  "7561": " Luc",
  "7562": " sharks",
  "7563": " prick",
  "7564": " student",
  "7565": " snort",
  "7566": " warri",
  "7567": " Kelly",
  "7568": " grandson",
  "7569": " symbols",
  "7570": " weeds",
  "7571": "aby",
  "7572": " Mother",
  "7573": " simply",
  "7574": " fishes",
  "7575": " Rain",
  "7576": " Kevin",
  "7577": "rie",
  "7578": " Froggy",
  "7579": " bandages",
  "7580": " granddaughter",
  "7581": " wobble",
  "7582": " respon",
  "7583": " response",
  "7584": " ni",
  "7585": " nasty",
  "7586": " except",
  "7587": " exercises",
  "7588": "we",
  "7589": " stopping",
  "7590": "steps",
  "7591": " tar",
  "7592": " occas",
  "7593": "cent",
  "7594": "elie",
  "7595": " banged",
  "7596": " afar",
  "7597": " darl",
  "7598": " darlings",
  "7599": " inspired",
  "7600": " travels",
  "7601": "father",
  "7602": " disturbing",
  "7603": " tipped",
  "7604": "abby",
  "7605": " fills",
  "7606": " masterp",
  "7607": " lent",
  "7608": " flipped",
  "7609": "€œHey",
  "7610": " footsteps",
  "7611": " Pepper",
  "7612": " pedaled",
  "7613": "worm",
  "7614": "line",
  "7615": " birdhouse",
  "7616": " windowsill",
  "7617": " spits",
  "7618": " purr",
  "7619": " travelling",
  "7620": " Welcome",
  "7621": " ships",
  "7622": " convin",
  "7623": " presented",
  "7624": " scarecrow",
  "7625": " Jax",
  "7626": "sol",
  "7627": " address",
  "7628": " punishment",
  "7629": " planting",
  "7630": " apologised",
  "7631": "mered",
  "7632": " chocolates",
  "7633": " antic",
  "7634": " Excitedly",
  "7635": "ddie",
  "7636": " forests",
  "7637": " surfboard",
  "7638": " congratulated",
  "7639": "ms",
  "7640": " Bounce",
  "7641": " Dory",
  "7642": " arranged",
  "7643": " reassured",
  "7644": " believing",
  "7645": " trotted",
  "7646": " reunited",
  "7647": " Ar",
  "7648": " Elle",
  "7649": "Em",
  "7650": "utter",
  "7651": " nodding",
  "7652": " encouragement",
  "7653": " cheers",
  "7654": " lies",
  "7655": " Joan",
  "7656": " images",
  "7657": " Feeling",
  "7658": " Pu",
  "7659": " poppies",
  "7660": " reapp",
  "7661": " campfire",
  "7662": " suits",
  "7663": " business",
  "7664": " target",
  "7665": " clerk",
  "7666": " magnif",
  "7667": " marve",
  "7668": "ooky",
  "7669": " sails",
  "7670": "issa",
  "7671": " Splash",
  "7672": "perate",
  "7673": " officers",
  "7674": " terrified",
  "7675": "manda",
  "7676": " backpacks",
  "7677": " grip",
  "7678": " covering",
  "7679": " yel",
  "7680": " knots",
  "7681": "-go",
  "7682": "ended",
  "7683": "aa",
  "7684": " activity",
  "7685": " Bow",
  "7686": "Beep",
  "7687": " yelped",
  "7688": "inkle",
  "7689": " surprising",
  "7690": " wrinkled",
  "7691": " smelling",
  "7692": " expert",
  "7693": " Other",
  "7694": " masterpiece",
  "7695": " mood",
  "7696": " dep",
  "7697": " Fighting",
  "7698": " Snowman",
  "7699": "otte",
  "7700": " concert",
  "7701": " changes",
  "7702": " chilly",
  "7703": "Quick",
  "7704": " Stan",
  "7705": " spills",
  "7706": " speeding",
  "7707": " testing",
  "7708": " tasting",
  "7709": " pleaded",
  "7710": " braver",
  "7711": " sniffing",
  "7712": " delayed",
  "7713": " Okay",
  "7714": " gears",
  "7715": " comforting",
  "7716": " Phil",
  "7717": "ider",
  "7718": " calmly",
  "7719": " Startled",
  "7720": "ats",
  "7721": "acle",
  "7722": "acles",
  "7723": " labels",
  "7724": "asha",
  "7725": " mermaid",
  "7726": " suggestion",
  "7727": " Elly",
  "7728": " Dog",
  "7729": " aware",
  "7730": " Amanda",
  "7731": " discussing",
  "7732": " stumble",
  "7733": " Try",
  "7734": " jars",
  "7735": " spies",
  "7736": " belongings",
  "7737": " Quackers",
  "7738": " mischie",
  "7739": " worrying",
  "7740": "-p",
  "7741": " bothering",
  "7742": " magazines",
  "7743": "flies",
  "7744": " crowns",
  "7745": " artwork",
  "7746": " displayed",
  "7747": " understands",
  "7748": " although",
  "7749": " mischievous",
  "7750": "ails",
  "7751": " Duck",
  "7752": " puck",
  "7753": " efforts",
  "7754": " admiration",
  "7755": " burying",
  "7756": " Ana",
  "7757": "screen",
  "7758": " height",
  "7759": " foxes",
  "7760": "emma",
  "7761": " hoo",
  "7762": " unfortunately",
  "7763": " sav",
  "7764": "Mandy",
  "7765": "pen",
  "7766": " refuse",
  "7767": " seller",
  "7768": " Jean",
  "7769": " baskets",
  "7770": " toolbox",
  "7771": " Bri",
  "7772": "rier",
  "7773": "ighing",
  "7774": " buddy",
  "7775": " bitten",
  "7776": " Outside",
  "7777": " experienced",
  "7778": " Daniel",
  "7779": " decl",
  "7780": " Charlotte",
  "7781": " que",
  "7782": " bless",
  "7783": " Spe",
  "7784": "inted",
  "7785": "Teddy",
  "7786": "vroom",
  "7787": " dragonfly",
  "7788": " vehicles",
  "7789": "wise",
  "7790": " packages",
  "7791": "what",
  "7792": " solving",
  "7793": " disc",
  "7794": " dump",
  "7795": "ibbit",
  "7796": "ugging",
  "7797": " pandas",
  "7798": " annoyed",
  "7799": " memb",
  "7800": " members",
  "7801": " Nancy",
  "7802": " momma",
  "7803": "ipes",
  "7804": "aturday",
  "7805": "bell",
  "7806": " tumbled",
  "7807": " Roger",
  "7808": " seashells",
  "7809": " Snowball",
  "7810": " fires",
  "7811": "€œThe",
  "7812": " warmly",
  "7813": " posit",
  "7814": "-d",
  "7815": " Saturday",
  "7816": " wealth",
  "7817": " nibbled",
  "7818": " sunscreen",
  "7819": "Jen",
  "7820": "aint",
  "7821": " peas",
  "7822": " treated",
  "7823": " Frankie",
  "7824": " troubles",
  "7825": " squaw",
  "7826": " rotting",
  "7827": " Helen",
  "7828": " scent",
  "7829": " material",
  "7830": "€œSure",
  "7831": " Fort",
  "7832": " conqu",
  "7833": " gazing",
  "7834": " stomp",
  "7835": " Lina",
  "7836": " insisting",
  "7837": " coach",
  "7838": " Ty",
  "7839": " untied",
  "7840": " Patty",
  "7841": " prayers",
  "7842": " diso",
  "7843": " environ",
  "7844": " parted",
  "7845": " conversation",
  "7846": "Joey",
  "7847": "Mag",
  "7848": " collap",
  "7849": " encountered",
  "7850": " Elsa",
  "7851": "All",
  "7852": " loops",
  "7853": " joins",
  "7854": " sewed",
  "7855": "aver",
  "7856": " races",
  "7857": " environment",
  "7858": " sill",
  "7859": " teachers",
  "7860": " scurrying",
  "7861": " whispering",
  "7862": "owing",
  "7863": "attered",
  "7864": " joked",
  "7865": " argum",
  "7866": " tilted",
  "7867": " purpose",
  "7868": " Annab",
  "7869": " stored",
  "7870": " orders",
  "7871": "-round",
  "7872": " Sasha",
  "7873": " loses",
  "7874": " exch",
  "7875": "Dear",
  "7876": " hoops",
  "7877": " cowboy",
  "7878": " genie",
  "7879": " Fortunately",
  "7880": "ppa",
  "7881": " Tammy",
  "7882": " spooky",
  "7883": " tweet",
  "7884": " sheets",
  "7885": " permitted",
  "7886": "order",
  "7887": " toss",
  "7888": "airy",
  "7889": " Ava",
  "7890": "Goodnight",
  "7891": "Get",
  "7892": " aim",
  "7893": "ongo",
  "7894": " Gus",
  "7895": " diamonds",
  "7896": "Sarah",
  "7897": " scram",
  "7898": " type",
  "7899": "iscuit",
  "7900": " anticip",
  "7901": " pupils",
  "7902": " Eddie",
  "7903": "ana",
  "7904": " glittering",
  "7905": " queens",
  "7906": " turtles",
  "7907": " beaming",
  "7908": " nearest",
  "7909": "illiam",
  "7910": " tubes",
  "7911": " trans",
  "7912": " ends",
  "7913": " maker",
  "7914": " servant",
  "7915": "€œSee",
  "7916": " films",
  "7917": " visitors",
  "7918": " donkey",
  "7919": " Rudy",
  "7920": " Sw",
  "7921": " opport",
  "7922": " spells",
  "7923": " untie",
  "7924": "igger",
  "7925": " gap",
  "7926": " Eric",
  "7927": " cleared",
  "7928": " fins",
  "7929": " stroke",
  "7930": " Woo",
  "7931": " rin",
  "7932": " Se",
  "7933": " Stitch",
  "7934": " oppos",
  "7935": " tapping",
  "7936": " customers",
  "7937": " nurses",
  "7938": " wasting",
  "7939": " priz",
  "7940": "usty",
  "7941": " swo",
  "7942": " shall",
  "7943": " hunters",
  "7944": " convinced",
  "7945": "?\"<|",
  "7946": " ger",
  "7947": " Ly",
  "7948": "aven",
  "7949": " swollen",
  "7950": " wounds",
  "7951": " Seeing",
  "7952": " Hold",
  "7953": " goats",
  "7954": " sweaty",
  "7955": " dressing",
  "7956": " Speedy",
  "7957": " slowed",
  "7958": " Grand",
  "7959": " declared",
  "7960": " Poor",
  "7961": " dot",
  "7962": " examining",
  "7963": "orter",
  "7964": "elope",
  "7965": " opposite",
  "7966": " characters",
  "7967": " failed",
  "7968": "ilities",
  "7969": "Tw",
  "7970": " Sk",
  "7971": " transf",
  "7972": " tidied",
  "7973": " grandfather",
  "7974": " warrior",
  "7975": " Elsie",
  "7976": " forgiveness",
  "7977": " sternly",
  "7978": " Finny",
  "7979": " goodies",
  "7980": " lipstick",
  "7981": " guessing",
  "7982": " Terry",
  "7983": " Min",
  "7984": " youngest",
  "7985": " peep",
  "7986": " scratching",
  "7987": "Leave",
  "7988": " seagulls",
  "7989": "mies",
  "7990": "rest",
  "7991": " inchworm",
  "7992": " beeped",
  "7993": "empt",
  "7994": " meowing",
  "7995": "Wh",
  "7996": " rescuing",
  "7997": " Lion",
  "7998": " William",
  "7999": " thanking",
  "8000": " questioned",
  "8001": " scrambled",
  "8002": " attempt",
  "8003": " grat",
  "8004": " dripping",
  "8005": " Youâ",
  "8006": " Spring",
  "8007": " tires",
  "8008": " bou",
  "8009": " bouqu",
  "8010": " active",
  "8011": "Bo",
  "8012": " form",
  "8013": " stall",
  "8014": " anticipation",
  "8015": " Bongo",
  "8016": "rily",
  "8017": " picnics",
  "8018": " nibble",
  "8019": "acy",
  "8020": " aisle",
  "8021": " responsibility",
  "8022": " floors",
  "8023": " responded",
  "8024": " blond",
  "8025": " smashed",
  "8026": " attacked",
  "8027": " shin",
  "8028": " matey",
  "8029": " explains",
  "8030": " force",
  "8031": "ivia",
  "8032": " emerged",
  "8033": " knocking",
  "8034": " Izzy",
  "8035": "Fl",
  "8036": " obeyed",
  "8037": "-w",
  "8038": " gratitude",
  "8039": " inter",
  "8040": " Taking",
  "8041": " discoveries",
  "8042": " vibr",
  "8043": " jud",
  "8044": " ting",
  "8045": " rely",
  "8046": "cie",
  "8047": "Stay",
  "8048": " decoration",
  "8049": " rays",
  "8050": " zooms",
  "8051": " charge",
  "8052": " classmates",
  "8053": " manners",
  "8054": "Any",
  "8055": " sprout",
  "8056": " visits",
  "8057": " sens",
  "8058": " snug",
  "8059": " signing",
  "8060": "€œWho",
  "8061": "An",
  "8062": " spy",
  "8063": " Jason",
  "8064": " aeroplanes",
  "8065": " soot",
  "8066": " girlâ",
  "8067": " twists",
  "8068": " survive",
  "8069": "ebecca",
  "8070": " instantly",
  "8071": " vegg",
  "8072": "Always",
  "8073": "munk",
  "8074": "So",
  "8075": "anda",
  "8076": "ippers",
  "8077": " loc",
  "8078": " wiggly",
  "8079": " Peppa",
  "8080": " Amber",
  "8081": " Beh",
  "8082": " self",
  "8083": " breaths",
  "8084": " seals",
  "8085": " unwra",
  "8086": " Tessa",
  "8087": " rumbling",
  "8088": "roll",
  "8089": " ramp",
  "8090": " La",
  "8091": "yl",
  "8092": " buckled",
  "8093": "act",
  "8094": " brightest",
  "8095": " shrunk",
  "8096": " hen",
  "8097": " bond",
  "8098": " beeh",
  "8099": " munched",
  "8100": " increasing",
  "8101": " manager",
  "8102": " shimmering",
  "8103": " purrs",
  "8104": "athan",
  "8105": " Rebecca",
  "8106": "idence",
  "8107": " Win",
  "8108": " flaps",
  "8109": " earned",
  "8110": " doorbell",
  "8111": " Penelope",
  "8112": " chatter",
  "8113": "gain",
  "8114": "ooking",
  "8115": " swaying",
  "8116": "ching",
  "8117": " lowered",
  "8118": "udged",
  "8119": " movements",
  "8120": " Bobbie",
  "8121": "iens",
  "8122": " Crabby",
  "8123": "ittered",
  "8124": " honking",
  "8125": " aliens",
  "8126": " cracks",
  "8127": " Zoomy",
  "8128": " argument",
  "8129": " chipmunk",
  "8130": " disobey",
  "8131": "ssss",
  "8132": " Chick",
  "8133": "inger",
  "8134": " whoever",
  "8135": " winding",
  "8136": " Nana",
  "8137": "romise",
  "8138": "ummies",
  "8139": " announced",
  "8140": " prevented",
  "8141": "its",
  "8142": "€œGood",
  "8143": " beaver",
  "8144": " Olivia",
  "8145": " Brian",
  "8146": " rowed",
  "8147": " bathing",
  "8148": " switched",
  "8149": "lied",
  "8150": " amu",
  "8151": " Ant",
  "8152": "Mr",
  "8153": " Sparkle",
  "8154": " mosquitoes",
  "8155": " taped",
  "8156": "storm",
  "8157": " Matilda",
  "8158": " offering",
  "8159": "oscope",
  "8160": " poses",
  "8161": " swap",
  "8162": " nuzzled",
  "8163": " Fel",
  "8164": " Gary",
  "8165": " cons",
  "8166": " prickly",
  "8167": "aret",
  "8168": "flowers",
  "8169": " swayed",
  "8170": " flips",
  "8171": " steth",
  "8172": " destroying",
  "8173": "uel",
  "8174": " lapt",
  "8175": " designing",
  "8176": " minds",
  "8177": " Ricky",
  "8178": " Behind",
  "8179": " cares",
  "8180": "bee",
  "8181": " badger",
  "8182": " Robo",
  "8183": " jobs",
  "8184": "Letâ",
  "8185": " dodged",
  "8186": " glimmering",
  "8187": " crawls",
  "8188": " rats",
  "8189": " Ashley",
  "8190": "ddles",
  "8191": " Ever",
  "8192": " whistles",
  "8193": " Jilly",
  "8194": " smelt",
  "8195": " crops",
  "8196": "Bang",
  "8197": " observing",
  "8198": " beautifully",
  "8199": " Sir",
  "8200": "rink",
  "8201": " dangers",
  "8202": " beating",
  "8203": " exploded",
  "8204": " shines",
  "8205": " knives",
  "8206": " scolds",
  "8207": " million",
  "8208": " checkout",
  "8209": " scooters",
  "8210": " stamped",
  "8211": " snaps",
  "8212": "angle",
  "8213": " Ready",
  "8214": " customer",
  "8215": " Sweet",
  "8216": " generosity",
  "8217": " groan",
  "8218": " Step",
  "8219": " languages",
  "8220": " deed",
  "8221": "boards",
  "8222": " germs",
  "8223": "lph",
  "8224": " recorder",
  "8225": " honesty",
  "8226": " hike",
  "8227": " tummies",
  "8228": " stethoscope",
  "8229": "lo",
  "8230": " robbers",
  "8231": " cocoon",
  "8232": "oc",
  "8233": " closing",
  "8234": " paddling",
  "8235": " Bad",
  "8236": " Eliza",
  "8237": " drowned",
  "8238": " clicked",
  "8239": " plug",
  "8240": " haven",
  "8241": " Trust",
  "8242": " expecting",
  "8243": "abra",
  "8244": " laptop",
  "8245": "-choo",
  "8246": " Cle",
  "8247": " Never",
  "8248": " routine",
  "8249": " supplied",
  "8250": " astronauts",
  "8251": " Cara",
  "8252": " Angel",
  "8253": " disappoint",
  "8254": " explor",
  "8255": "amma",
  "8256": " veggies",
  "8257": "Dave",
  "8258": " court",
  "8259": "ulp",
  "8260": "lor",
  "8261": " dears",
  "8262": " steering",
  "8263": "oosh",
  "8264": " Zero",
  "8265": " Shelly",
  "8266": " tidying",
  "8267": " adds",
  "8268": "otch",
  "8269": " conduct",
  "8270": "lt",
  "8271": " bouquet",
  "8272": " beehive",
  "8273": " Rud",
  "8274": " unpacking",
  "8275": " ill",
  "8276": " sculp",
  "8277": "lest",
  "8278": " novels",
  "8279": "€œMaybe",
  "8280": "arable",
  "8281": " cupcake",
  "8282": " statues",
  "8283": "ita",
  "8284": " tin",
  "8285": " chatted",
  "8286": " particularly",
  "8287": "Henry",
  "8288": " Gracie",
  "8289": "Danny",
  "8290": " reminds",
  "8291": " Bonnie",
  "8292": "olph",
  "8293": "pit",
  "8294": " shorts",
  "8295": " hardest",
  "8296": " caw",
  "8297": " stretches",
  "8298": " healthier",
  "8299": " applause",
  "8300": " floats",
  "8301": " wiser",
  "8302": " Isn",
  "8303": " Donâ",
  "8304": " Ho",
  "8305": " ghosts",
  "8306": " conductor",
  "8307": "rup",
  "8308": " strum",
  "8309": "Arrr",
  "8310": " heaven",
  "8311": " Belle",
  "8312": "-h",
  "8313": "Nice",
  "8314": " awful",
  "8315": " dollar",
  "8316": " plugged",
  "8317": "pril",
  "8318": " Cr",
  "8319": " Jenn",
  "8320": " wildflowers",
  "8321": " Rudolph",
  "8322": " scri",
  "8323": " elect",
  "8324": "Too",
  "8325": "idents",
  "8326": " traded",
  "8327": " overhead",
  "8328": "idnight",
  "8329": " syrup",
  "8330": " squished",
  "8331": "Someone",
  "8332": " Ele",
  "8333": " whatâ",
  "8334": " combed",
  "8335": " carries",
  "8336": " opinions",
  "8337": " nests",
  "8338": " faint",
  "8339": " fascinating",
  "8340": "anced",
  "8341": " experiences",
  "8342": " swallow",
  "8343": " sprays",
  "8344": " Nora",
  "8345": "aula",
  "8346": " beast",
  "8347": " umbrellas",
  "8348": " Zack",
  "8349": " Right",
  "8350": "omb",
  "8351": " container",
  "8352": " Bert",
  "8353": " returning",
  "8354": " ouch",
  "8355": " bothered",
  "8356": "elieve",
  "8357": " Tyler",
  "8358": " killed",
  "8359": "ative",
  "8360": " gall",
  "8361": "rough",
  "8362": "water",
  "8363": " locks",
  "8364": "George",
  "8365": " providing",
  "8366": " flashing",
  "8367": " Immediately",
  "8368": " sets",
  "8369": "earing",
  "8370": " shorter",
  "8371": " examp",
  "8372": " April",
  "8373": " sculpture",
  "8374": "€œOk",
  "8375": " flashed",
  "8376": " checks",
  "8377": "chy",
  "8378": " weapons",
  "8379": "rench",
  "8380": " Quickly",
  "8381": " teles",
  "8382": "ouraged",
  "8383": " tearing",
  "8384": " bounces",
  "8385": " desc",
  "8386": "€œBe",
  "8387": "orking",
  "8388": " papa",
  "8389": " hotter",
  "8390": " tests",
  "8391": "ordinary",
  "8392": " defeated",
  "8393": "Quack",
  "8394": " inches",
  "8395": "Peter",
  "8396": " glided",
  "8397": " Another",
  "8398": " sprinkle",
  "8399": " grumbled",
  "8400": " farmers",
  "8401": " scrub",
  "8402": " nights",
  "8403": "-col",
  "8404": " faith",
  "8405": " Peggy",
  "8406": "ccidents",
  "8407": "centr",
  "8408": " burnt",
  "8409": " hu",
  "8410": "ators",
  "8411": " conv",
  "8412": " telescope",
  "8413": " Flora",
  "8414": "Tr",
  "8415": " sadder",
  "8416": "eople",
  "8417": " Andrew",
  "8418": " Foxy",
  "8419": " confidence",
  "8420": " trusting",
  "8421": " concentr",
  "8422": " Carla",
  "8423": " applauding",
  "8424": " Bang",
  "8425": "ooks",
  "8426": " serving",
  "8427": " twenty",
  "8428": "€�",
  "8429": " electric",
  "8430": "iving",
  "8431": " convince",
  "8432": " hiss",
  "8433": "ession",
  "8434": " cheated",
  "8435": " gardens",
  "8436": " Fairy",
  "8437": " icing",
  "8438": "ift",
  "8439": "lers",
  "8440": " bluebird",
  "8441": " Butter",
  "8442": " necks",
  "8443": " crystals",
  "8444": " burns",
  "8445": " awhile",
  "8446": "Choo",
  "8447": " Prince",
  "8448": " Melissa",
  "8449": " Wooly",
  "8450": "-five",
  "8451": " cubs",
  "8452": " Rosa",
  "8453": " visitor",
  "8454": " Say",
  "8455": "€¦",
  "8456": " petting",
  "8457": " teams",
  "8458": "parable",
  "8459": " raising",
  "8460": "vy",
  "8461": " collapsed",
  "8462": " extraordinary",
  "8463": "ances",
  "8464": " checking",
  "8465": " Annabelle",
  "8466": " inseparable",
  "8467": " dryer",
  "8468": " blown",
  "8469": " forgives",
  "8470": " goo",
  "8471": " sirens",
  "8472": " Wigg",
  "8473": " munching",
  "8474": " types",
  "8475": " Dino",
  "8476": " soapy",
  "8477": " member",
  "8478": " example",
  "8479": "eep",
  "8480": " born",
  "8481": " Gabby",
  "8482": " odd",
  "8483": " grassho",
  "8484": " instrument",
  "8485": "Kids",
  "8486": " imaginary",
  "8487": " Liam",
  "8488": "Put",
  "8489": "His",
  "8490": " biscuit",
  "8491": " behaviour",
  "8492": " prizes",
  "8493": " natur",
  "8494": " mac",
  "8495": " playd",
  "8496": " meows",
  "8497": " singers",
  "8498": " Pick",
  "8499": " bicycles",
  "8500": " waded",
  "8501": "val",
  "8502": " Barry",
  "8503": " kit",
  "8504": " Liza",
  "8505": " momâ",
  "8506": " compan",
  "8507": " Sparkles",
  "8508": "over",
  "8509": " Magic",
  "8510": " sprang",
  "8511": " waters",
  "8512": " flick",
  "8513": " peeped",
  "8514": " Smo",
  "8515": " salon",
  "8516": " upside",
  "8517": " dock",
  "8518": " lim",
  "8519": "-shaped",
  "8520": " opportunity",
  "8521": " flip",
  "8522": " attitude",
  "8523": "adabra",
  "8524": " exploration",
  "8525": " traveling",
  "8526": " invent",
  "8527": " conquered",
  "8528": "Boys",
  "8529": " longest",
  "8530": " unlo",
  "8531": " expression",
  "8532": " distracted",
  "8533": "ending",
  "8534": "adually",
  "8535": " hood",
  "8536": " sandy",
  "8537": "-l",
  "8538": " bride",
  "8539": " realizes",
  "8540": " Twinkle",
  "8541": " hunting",
  "8542": " cheaper",
  "8543": " deserved",
  "8544": " Har",
  "8545": " flowing",
  "8546": " enem",
  "8547": " enemies",
  "8548": " unable",
  "8549": " fet",
  "8550": " wriggled",
  "8551": " trigger",
  "8552": " coolest",
  "8553": " pills",
  "8554": " sweaters",
  "8555": "Ab",
  "8556": " mommies",
  "8557": " Rich",
  "8558": " Pin",
  "8559": " Wo",
  "8560": " engines",
  "8561": " flock",
  "8562": " envelopes",
  "8563": " Sky",
  "8564": "getic",
  "8565": " otters",
  "8566": " bomb",
  "8567": " clearly",
  "8568": " gulp",
  "8569": "rick",
  "8570": "str",
  "8571": " discouraged",
  "8572": "bu",
  "8573": "-vroom",
  "8574": " burger",
  "8575": " rows",
  "8576": " Jody",
  "8577": " swimmer",
  "8578": " Willy",
  "8579": "whel",
  "8580": " whales",
  "8581": " compete",
  "8582": " reappeared",
  "8583": " Mona",
  "8584": " clip",
  "8585": " chatting",
  "8586": "erg",
  "8587": "ouched",
  "8588": " tips",
  "8589": "Mark",
  "8590": " Rufus",
  "8591": " grasshopper",
  "8592": " passes",
  "8593": " countries",
  "8594": " glittered",
  "8595": " Pet",
  "8596": " quacking",
  "8597": "Pl",
  "8598": " Riley",
  "8599": " sometime",
  "8600": " Midnight",
  "8601": " Lenny",
  "8602": " robin",
  "8603": " thump",
  "8604": " overwhel",
  "8605": "jest",
  "8606": "aptain",
  "8607": "balls",
  "8608": " unco",
  "8609": " torto",
  "8610": "icate",
  "8611": " ability",
  "8612": " annoying",
  "8613": " patches",
  "8614": "off",
  "8615": " mattered",
  "8616": " spilling",
  "8617": " details",
  "8618": " Ne",
  "8619": " Oink",
  "8620": " Candy",
  "8621": " Make",
  "8622": " enjoyable",
  "8623": " strips",
  "8624": "ingo",
  "8625": "Bobby",
  "8626": " tortoise",
  "8627": " common",
  "8628": " crowded",
  "8629": " fond",
  "8630": " whined",
  "8631": "€œA",
  "8632": " sincere",
  "8633": " cheat",
  "8634": " gallop",
  "8635": "iter",
  "8636": " Stri",
  "8637": "anie",
  "8638": " treas",
  "8639": " thicker",
  "8640": " Zee",
  "8641": " relaxing",
  "8642": " uniforms",
  "8643": " approach",
  "8644": " doz",
  "8645": " soundly",
  "8646": " jugg",
  "8647": " companion",
  "8648": " surely",
  "8649": " yawning",
  "8650": " Gray",
  "8651": " cheerfully",
  "8652": " hangers",
  "8653": " curl",
  "8654": " marking",
  "8655": " Boo",
  "8656": "da",
  "8657": " Show",
  "8658": "aus",
  "8659": "stand",
  "8660": " skies",
  "8661": "iolet",
  "8662": "cadabra",
  "8663": " Joanna",
  "8664": " Nice",
  "8665": " Looking",
  "8666": " prod",
  "8667": " stur",
  "8668": " formed",
  "8669": " cafe",
  "8670": " Paula",
  "8671": " Mila",
  "8672": "atty",
  "8673": " becomes",
  "8674": " whisk",
  "8675": " natural",
  "8676": " outfits",
  "8677": "Grandpa",
  "8678": " Through",
  "8679": " Bra",
  "8680": " treasured",
  "8681": " beetles",
  "8682": " abo",
  "8683": " washes",
  "8684": " Moo",
  "8685": "Keep",
  "8686": " Jennie",
  "8687": " Care",
  "8688": " Again",
  "8689": " noticing",
  "8690": " Yum",
  "8691": " vibrant",
  "8692": " bubbly",
  "8693": " aboard",
  "8694": " repairman",
  "8695": " squeaky",
  "8696": " airplanes",
  "8697": " BunBun",
  "8698": " moat",
  "8699": "ship",
  "8700": " weighing",
  "8701": " moonlight",
  "8702": "elvet",
  "8703": "bur",
  "8704": " shallow",
  "8705": " Accidents",
  "8706": "asmine",
  "8707": " haircuts",
  "8708": " backs",
  "8709": "iggie",
  "8710": " melody",
  "8711": "shadow",
  "8712": " chin",
  "8713": " hab",
  "8714": " pleas",
  "8715": " swirls",
  "8716": " storms",
  "8717": " newspapers",
  "8718": "ering",
  "8719": " Ky",
  "8720": " chill",
  "8721": " bund",
  "8722": "uggy",
  "8723": " Ed",
  "8724": " commun",
  "8725": " Vroom",
  "8726": "andra",
  "8727": " mugs",
  "8728": " freezing",
  "8729": " Jose",
  "8730": " hummed",
  "8731": " blonde",
  "8732": " Tiger",
  "8733": " Oh",
  "8734": " cowboys",
  "8735": " miracle",
  "8736": " sneezes",
  "8737": "hole",
  "8738": "Nina",
  "8739": " erase",
  "8740": "faction",
  "8741": " dev",
  "8742": " pepperoni",
  "8743": " messes",
  "8744": " slee",
  "8745": " satisfaction",
  "8746": " Captain",
  "8747": "nnie",
  "8748": " compliment",
  "8749": " lump",
  "8750": " Monkey",
  "8751": " calmer",
  "8752": "ighty",
  "8753": "€œYay",
  "8754": " Martin",
  "8755": " squinted",
  "8756": " Leah",
  "8757": " Velvet",
  "8758": "endant",
  "8759": " scattering",
  "8760": " blushed",
  "8761": "venir",
  "8762": " sipped",
  "8763": " clue",
  "8764": " successfully",
  "8765": "ints",
  "8766": " occasion",
  "8767": " souvenir",
  "8768": " leaking",
  "8769": " situations",
  "8770": " joyfully",
  "8771": " coughed",
  "8772": " positive",
  "8773": " models",
  "8774": "',",
  "8775": "isp",
  "8776": " glittery",
  "8777": "Fluffy",
  "8778": "ware",
  "8779": " meatballs",
  "8780": " smartest",
  "8781": " bruises",
  "8782": " Over",
  "8783": "Anytime",
  "8784": " yumm",
  "8785": " weighs",
  "8786": "immered",
  "8787": " explaining",
  "8788": " ank",
  "8789": " scenery",
  "8790": " Whoever",
  "8791": " Off",
  "8792": " local",
  "8793": " tickling",
  "8794": " answering",
  "8795": " Hello",
  "8796": " unfair",
  "8797": " snowy",
  "8798": " scares",
  "8799": " burgers",
  "8800": "Andy",
  "8801": " rewards",
  "8802": " pressing",
  "8803": " pinching",
  "8804": "bank",
  "8805": " talents",
  "8806": " welcoming",
  "8807": " Alf",
  "8808": "amboo",
  "8809": " shattered",
  "8810": " Oliver",
  "8811": "amil",
  "8812": " possib",
  "8813": "etchup",
  "8814": " bulbs",
  "8815": " rewarding",
  "8816": " teap",
  "8817": " Janet",
  "8818": " Choo",
  "8819": " hisses",
  "8820": " cleans",
  "8821": " rubbish",
  "8822": " roast",
  "8823": "Hmm",
  "8824": " bound",
  "8825": " Super",
  "8826": " Jasmine",
  "8827": " pantry",
  "8828": "Maggie",
  "8829": "ili",
  "8830": " Per",
  "8831": "eal",
  "8832": " scow",
  "8833": "Hold",
  "8834": " Ginger",
  "8835": " rowing",
  "8836": "HE",
  "8837": " traps",
  "8838": " Playing",
  "8839": "belt",
  "8840": "oor",
  "8841": " practised",
  "8842": " crocodiles",
  "8843": " binoc",
  "8844": " teapot",
  "8845": " digs",
  "8846": " intently",
  "8847": " forts",
  "8848": " Sunshine",
  "8849": "Honey",
  "8850": " sturdy",
  "8851": "scotch",
  "8852": " minded",
  "8853": " groaned",
  "8854": " Chickie",
  "8855": "now",
  "8856": " Thankfully",
  "8857": " whimp",
  "8858": " pilots",
  "8859": " Hootie",
  "8860": " cells",
  "8861": " marveled",
  "8862": " rebu",
  "8863": " baller",
  "8864": " tempted",
  "8865": " topp",
  "8866": " seatbelt",
  "8867": "beep",
  "8868": " Mamma",
  "8869": " horri",
  "8870": " Man",
  "8871": "icious",
  "8872": " Bruce",
  "8873": " angrily",
  "8874": " stuffing",
  "8875": "Yesterday",
  "8876": " pipes",
  "8877": "amiliar",
  "8878": "Che",
  "8879": " unfamiliar",
  "8880": " apology",
  "8881": " sandpit",
  "8882": " tunes",
  "8883": " finishes",
  "8884": "Harry",
  "8885": " bends",
  "8886": " ketchup",
  "8887": " microw",
  "8888": " funn",
  "8889": " Of",
  "8890": " smoking",
  "8891": " doorstep",
  "8892": " croaked",
  "8893": " fireflies",
  "8894": " bubbling",
  "8895": " Very",
  "8896": "mel",
  "8897": " invites",
  "8898": " tentacles",
  "8899": " goodness",
  "8900": " energetic",
  "8901": " meadows",
  "8902": " lookout",
  "8903": " Yesterday",
  "8904": " microwave",
  "8905": " runner",
  "8906": "-g",
  "8907": "jack",
  "8908": " sweeter",
  "8909": "acock",
  "8910": " shyly",
  "8911": " clut",
  "8912": " tugging",
  "8913": " Ken",
  "8914": " chews",
  "8915": " embra",
  "8916": "Open",
  "8917": "€œWeâ",
  "8918": " spoiling",
  "8919": " exchange",
  "8920": "Ahoy",
  "8921": "ifi",
  "8922": " Life",
  "8923": " acts",
  "8924": " messages",
  "8925": " Gold",
  "8926": " stepping",
  "8927": " shrank",
  "8928": "lish",
  "8929": " cages",
  "8930": "rupt",
  "8931": " strolled",
  "8932": " overwhelmed",
  "8933": " Elephant",
  "8934": " watermel",
  "8935": " weâ",
  "8936": " moons",
  "8937": " ripp",
  "8938": "umper",
  "8939": " protection",
  "8940": " lar",
  "8941": " cheating",
  "8942": " boards",
  "8943": " slapping",
  "8944": " hesitation",
  "8945": " caterpillars",
  "8946": "ris",
  "8947": "Sandy",
  "8948": " crisp",
  "8949": "ole",
  "8950": " gasps",
  "8951": "ulars",
  "8952": " obst",
  "8953": " defeat",
  "8954": " Felix",
  "8955": " jets",
  "8956": " chopping",
  "8957": " dou",
  "8958": " lull",
  "8959": " inju",
  "8960": " popsic",
  "8961": " Brad",
  "8962": " Light",
  "8963": "otion",
  "8964": "Benny",
  "8965": " connect",
  "8966": " Dot",
  "8967": "scar",
  "8968": "sey",
  "8969": " underwater",
  "8970": " fade",
  "8971": "Achoo",
  "8972": " melons",
  "8973": " foam",
  "8974": " Isab",
  "8975": " aston",
  "8976": "For",
  "8977": " consider",
  "8978": " Fly",
  "8979": " binoculars",
  "8980": " certainly",
  "8981": " Does",
  "8982": " alley",
  "8983": " demanding",
  "8984": " playhouse",
  "8985": "Fr",
  "8986": "Charl",
  "8987": " pouch",
  "8988": "ka",
  "8989": " crouched",
  "8990": " section",
  "8991": " ballerina",
  "8992": " shares",
  "8993": " Beep",
  "8994": " slithered",
  "8995": " cherish",
  "8996": " month",
  "8997": "how",
  "8998": " fishy",
  "8999": "Bl",
  "9000": "!'.",
  "9001": "racadabra",
  "9002": " Er",
  "9003": " loyalty",
  "9004": " Surpr",
  "9005": "-Bun",
  "9006": " bamboo",
  "9007": " Jackâ",
  "9008": " differently",
  "9009": "chief",
  "9010": " Fifi",
  "9011": "bl",
  "9012": "Jake",
  "9013": " guards",
  "9014": " pounced",
  "9015": "!\".<|",
  "9016": "sie",
  "9017": " hopscotch",
  "9018": " rips",
  "9019": " peacock",
  "9020": " transformed",
  "9021": "anted",
  "9022": " recess",
  "9023": " disappointment",
  "9024": " ''",
  "9025": " meaning",
  "9026": " Steven",
  "9027": " Peep",
  "9028": " riverbank",
  "9029": "Emma",
  "9030": " fist",
  "9031": "iciest",
  "9032": " prog",
  "9033": " Tre",
  "9034": " unwrapped",
  "9035": " squeezes",
  "9036": "Danger",
  "9037": " Cathy",
  "9038": " Te",
  "9039": " playdate",
  "9040": " icky",
  "9041": " landing",
  "9042": "-to",
  "9043": " rack",
  "9044": " ankle",
  "9045": " THE",
  "9046": " stores",
  "9047": "Never",
  "9048": " raking",
  "9049": " sweetly",
  "9050": " pokes",
  "9051": " Sleep",
  "9052": " fries",
  "9053": " cherished",
  "9054": " nightmares",
  "9055": "alled",
  "9056": " erupt",
  "9057": " Tears",
  "9058": " amused",
  "9059": " whimpered",
  "9060": " Whe",
  "9061": "cycles",
  "9062": " Mighty",
  "9063": " arrest",
  "9064": "solut",
  "9065": "iring",
  "9066": " Wait",
  "9067": " thie",
  "9068": " snorted",
  "9069": " napped",
  "9070": ",'",
  "9071": " thrill",
  "9072": "Soon",
  "9073": " birdy",
  "9074": " judges",
  "9075": " Gemma",
  "9076": " teamwork",
  "9077": " Chuck",
  "9078": " Weâ",
  "9079": "rum",
  "9080": " actor",
  "9081": " Claus",
  "9082": " Violet",
  "9083": "€œHow",
  "9084": "gets",
  "9085": " crickets",
  "9086": " blades",
  "9087": "edic",
  "9088": " Ms",
  "9089": " majest",
  "9090": " curre",
  "9091": " mayor",
  "9092": " thunderstorm",
  "9093": "Charlie",
  "9094": " centre",
  "9095": " Fish",
  "9096": " Allie",
  "9097": "ulf",
  "9098": " shoel",
  "9099": " Con",
  "9100": " injured",
  "9101": " Minnie",
  "9102": " tickles",
  "9103": " gates",
  "9104": " watermelon",
  "9105": " sacks",
  "9106": " Patrick",
  "9107": " mysteries",
  "9108": " thieves",
  "9109": " groups",
  "9110": " Day",
  "9111": " styles",
  "9112": " snapping",
  "9113": "othy",
  "9114": "rob",
  "9115": " Birdie",
  "9116": " lumberjack",
  "9117": " miller",
  "9118": "oss",
  "9119": "emy",
  "9120": " roo",
  "9121": " stew",
  "9122": " leans",
  "9123": " creams",
  "9124": "Sus",
  "9125": " Mine",
  "9126": " temptation",
  "9127": " Ouch",
  "9128": " tant",
  "9129": " Nate",
  "9130": " Share",
  "9131": " Sal",
  "9132": "isdom",
  "9133": "uster",
  "9134": " Ravi",
  "9135": " enemy",
  "9136": " boil",
  "9137": " townsp",
  "9138": " keyhole",
  "9139": " condition",
  "9140": " structures",
  "9141": " intelligence",
  "9142": " choosing",
  "9143": " Boun",
  "9144": " Bamb",
  "9145": "uess",
  "9146": " frustration",
  "9147": " spare",
  "9148": " Wilbur",
  "9149": " hundreds",
  "9150": " ding",
  "9151": " charm",
  "9152": " Marley",
  "9153": " ruff",
  "9154": "uction",
  "9155": " scene",
  "9156": " whir",
  "9157": "Hurry",
  "9158": "inct",
  "9159": "Tweet",
  "9160": " auntie",
  "9161": "hings",
  "9162": "that",
  "9163": " heels",
  "9164": " banging",
  "9165": " seasons",
  "9166": "First",
  "9167": " swimsuits",
  "9168": "ige",
  "9169": " Lots",
  "9170": "Daisy",
  "9171": " supporting",
  "9172": " sleeps",
  "9173": " Avery",
  "9174": " benches",
  "9175": "icest",
  "9176": "oured",
  "9177": "tern",
  "9178": " Bambi",
  "9179": "James",
  "9180": " computers",
  "9181": " tantrum",
  "9182": " weaker",
  "9183": " Rita",
  "9184": " rebuild",
  "9185": " levers",
  "9186": " textures",
  "9187": " level",
  "9188": " communicate",
  "9189": " Oscar",
  "9190": " trading",
  "9191": " nicest",
  "9192": " bas",
  "9193": "sers",
  "9194": " bold",
  "9195": " hissing",
  "9196": " wiggling",
  "9197": "uno",
  "9198": " townspeople",
  "9199": " electricity",
  "9200": "mie",
  "9201": " timid",
  "9202": "reled",
  "9203": " luckiest",
  "9204": " shinier",
  "9205": " alongside",
  "9206": " lush",
  "9207": " Josie",
  "9208": " dart",
  "9209": " claw",
  "9210": " trusty",
  "9211": " plo",
  "9212": "lyn",
  "9213": " spears",
  "9214": " camel",
  "9215": " experiment",
  "9216": " Johny",
  "9217": " stun",
  "9218": "gar",
  "9219": " Jodie",
  "9220": " Carol",
  "9221": " warmed",
  "9222": " glisten",
  "9223": " pedaling",
  "9224": " tot",
  "9225": " trusts",
  "9226": " Tree",
  "9227": " thumbs",
  "9228": " prank",
  "9229": " softened",
  "9230": "reg",
  "9231": " magnifying",
  "9232": "eremy",
  "9233": " quarreled",
  "9234": "ani",
  "9235": " Gw",
  "9236": "under",
  "9237": "Which",
  "9238": " da",
  "9239": " kneeling",
  "9240": " mooed",
  "9241": " Woof",
  "9242": " Tra",
  "9243": " foggy",
  "9244": " Ziggy",
  "9245": " reversing",
  "9246": " whine",
  "9247": "prints",
  "9248": " toothbrush",
  "9249": " disappearing",
  "9250": " Fa",
  "9251": " cops",
  "9252": " skirts",
  "9253": " astonished",
  "9254": " harvest",
  "9255": " Jonathan",
  "9256": " worst",
  "9257": " knobs",
  "9258": " guarding",
  "9259": " writer",
  "9260": "ormation",
  "9261": " boiling",
  "9262": " Nell",
  "9263": " Sandra",
  "9264": " Near",
  "9265": "solutely",
  "9266": " groom",
  "9267": " tops",
  "9268": " Carefully",
  "9269": " fetched",
  "9270": " compared",
  "9271": " yelp",
  "9272": " continuing",
  "9273": "aisie",
  "9274": " Stanley",
  "9275": "Two",
  "9276": " baa",
  "9277": " concerned",
  "9278": "cell",
  "9279": " motorcycles",
  "9280": "-one",
  "9281": " creep",
  "9282": " Hug",
  "9283": " oldest",
  "9284": " unless",
  "9285": "ial",
  "9286": " magically",
  "9287": " revealing",
  "9288": "Ã",
  "9289": " improving",
  "9290": " bowing",
  "9291": " sensation",
  "9292": " Was",
  "9293": " Using",
  "9294": "€œThanks",
  "9295": " kangaroos",
  "9296": " Hurry",
  "9297": " canv",
  "9298": " lullaby",
  "9299": " cupboards",
  "9300": " Peanut",
  "9301": " Buggy",
  "9302": " cuddling",
  "9303": "guard",
  "9304": " Ber",
  "9305": " wheelb",
  "9306": " wheelbarrow",
  "9307": " Hopper",
  "9308": " peak",
  "9309": "ala",
  "9310": "Try",
  "9311": " doesnâ",
  "9312": " Kyle",
  "9313": " owns",
  "9314": " bushy",
  "9315": " poisonous",
  "9316": "oto",
  "9317": "ker",
  "9318": " popping",
  "9319": " Buster",
  "9320": " Girl",
  "9321": " embarrassing",
  "9322": "agine",
  "9323": " cooled",
  "9324": " journeys",
  "9325": " brains",
  "9326": " Rainbow",
  "9327": " soothing",
  "9328": " disagre",
  "9329": "inny",
  "9330": " wrench",
  "9331": " whirl",
  "9332": " guardian",
  "9333": " aloud",
  "9334": "urity",
  "9335": "Bella",
  "9336": " Libby",
  "9337": "Abracadabra",
  "9338": " drying",
  "9339": " blade",
  "9340": " shoots",
  "9341": "ibly",
  "9342": "Deal",
  "9343": " realise",
  "9344": " narrow",
  "9345": " Cook",
  "9346": " sneaks",
  "9347": "ps",
  "9348": " allowing",
  "9349": " shh",
  "9350": " fift",
  "9351": "ifer",
  "9352": " invitations",
  "9353": " troll",
  "9354": " arom",
  "9355": " coughing",
  "9356": "ai",
  "9357": " Thumper",
  "9358": "€œWelcome",
  "9359": " Alan",
  "9360": " facing",
  "9361": " canvas",
  "9362": " courageous",
  "9363": "iky",
  "9364": " facts",
  "9365": " Maisie",
  "9366": "well",
  "9367": " Whatâ",
  "9368": " larger",
  "9369": "Does",
  "9370": " allerg",
  "9371": " mindful",
  "9372": "ogo",
  "9373": " cracker",
  "9374": "vering",
  "9375": " dashed",
  "9376": " heavily",
  "9377": " --",
  "9378": " sleds",
  "9379": " deeply",
  "9380": " mustered",
  "9381": " bud",
  "9382": " puppets",
  "9383": " Math",
  "9384": " nearer",
  "9385": " disaster",
  "9386": "aling",
  "9387": " angrier",
  "9388": " Lucas",
  "9389": " susp",
  "9390": " current",
  "9391": "mark",
  "9392": " whoosh",
  "9393": " blooms",
  "9394": " sobbing",
  "9395": " Colin",
  "9396": " quilt",
  "9397": " costs",
  "9398": " honks",
  "9399": " Gwen",
  "9400": " desper",
  "9401": " Dra",
  "9402": " instinct",
  "9403": "inging",
  "9404": " caps",
  "9405": " cousins",
  "9406": " medals",
  "9407": " foreshadow",
  "9408": " Randy",
  "9409": " knit",
  "9410": " hollow",
  "9411": " completing",
  "9412": " Ice",
  "9413": " circled",
  "9414": " shrugs",
  "9415": " Summer",
  "9416": " realizing",
  "9417": " property",
  "9418": " zips",
  "9419": " Gret",
  "9420": " Char",
  "9421": " repeats",
  "9422": " scoops",
  "9423": " hips",
  "9424": " throne",
  "9425": "omp",
  "9426": " contented",
  "9427": " loudest",
  "9428": "pect",
  "9429": " Patches",
  "9430": " repairing",
  "9431": " hangs",
  "9432": " flashes",
  "9433": " warmest",
  "9434": " mold",
  "9435": " wolves",
  "9436": " Tomorrow",
  "9437": " whipped",
  "9438": "rap",
  "9439": " depart",
  "9440": " attempts",
  "9441": " Toto",
  "9442": " Gl",
  "9443": "ashes",
  "9444": " copied",
  "9445": " lava",
  "9446": "elling",
  "9447": " till",
  "9448": " security",
  "9449": " lizards",
  "9450": " plopped",
  "9451": " cooperate",
  "9452": "cutter",
  "9453": "sa",
  "9454": " skate",
  "9455": " necess",
  "9456": " opt",
  "9457": " grownup",
  "9458": "this",
  "9459": "-colored",
  "9460": " exh",
  "9461": " Kenny",
  "9462": " waking",
  "9463": "antern",
  "9464": " Jeremy",
  "9465": " winds",
  "9466": " woodcutter",
  "9467": " pose",
  "9468": " harmony",
  "9469": " sooner",
  "9470": " Jennifer",
  "9471": " cutter",
  "9472": " Ria",
  "9473": " spiky",
  "9474": " achievement",
  "9475": " heâ",
  "9476": " dozed",
  "9477": " preschool",
  "9478": "sm",
  "9479": " Pinchy",
  "9480": " footprints",
  "9481": " flooded",
  "9482": " allowance",
  "9483": " pleasant",
  "9484": " glared",
  "9485": "€œThere",
  "9486": " fights",
  "9487": " kayaking",
  "9488": " rails",
  "9489": " huddled",
  "9490": " calming",
  "9491": " lunchtime",
  "9492": " incredibly",
  "9493": " theat",
  "9494": " isnâ",
  "9495": " manâ",
  "9496": " juiciest",
  "9497": " minding",
  "9498": " Bark",
  "9499": " tale",
  "9500": " Deal",
  "9501": "rrrr",
  "9502": " hooves",
  "9503": " ticking",
  "9504": "€œOK",
  "9505": " builder",
  "9506": "bbi",
  "9507": "emon",
  "9508": " gratefully",
  "9509": " aroma",
  "9510": " otherwise",
  "9511": "Moo",
  "9512": "tled",
  "9513": " disagreement",
  "9514": "uke",
  "9515": " perfor",
  "9516": "€œWould",
  "9517": " cig",
  "9518": " Bruno",
  "9519": "Nothing",
  "9520": " swapped",
  "9521": " glistening",
  "9522": " bellies",
  "9523": " hatched",
  "9524": "ssy",
  "9525": " seriously",
  "9526": " Ratty",
  "9527": " strokes",
  "9528": " jing",
  "9529": " purch",
  "9530": " booth",
  "9531": " movement",
  "9532": " CD",
  "9533": "reya",
  "9534": " shave",
  "9535": " springing",
  "9536": " speaks",
  "9537": " soda",
  "9538": " grump",
  "9539": " robe",
  "9540": " challenges",
  "9541": " Matthew",
  "9542": " Flutter",
  "9543": " cigaret",
  "9544": " theatre",
  "9545": " absolutely",
  "9546": " Mir",
  "9547": " lifeguard",
  "9548": " webs",
  "9549": " Sitting",
  "9550": " Hank",
  "9551": " quacks",
  "9552": " habit",
  "9553": " possibilities",
  "9554": " Wolf",
  "9555": " interrupt",
  "9556": " loads",
  "9557": " Freya",
  "9558": " admit",
  "9559": " ench",
  "9560": "iana",
  "9561": " oceans",
  "9562": "pan",
  "9563": " persistence",
  "9564": "ics",
  "9565": "ggles",
  "9566": " stalk",
  "9567": " Ye",
  "9568": "Friend",
  "9569": " sniffled",
  "9570": " glanced",
  "9571": "iments",
  "9572": " owls",
  "9573": " Could",
  "9574": "oned",
  "9575": " daily",
  "9576": " capture",
  "9577": " bumping",
  "9578": "ost",
  "9579": " lasted",
  "9580": "berry",
  "9581": " Johnâ",
  "9582": " bats",
  "9583": " Smoke",
  "9584": "icent",
  "9585": " musicians",
  "9586": " lever",
  "9587": " Jes",
  "9588": " bathed",
  "9589": " Ge",
  "9590": " smoothly",
  "9591": " blamed",
  "9592": " Sa",
  "9593": " hoot",
  "9594": " goggles",
  "9595": "Susie",
  "9596": "\"!",
  "9597": " Ami",
  "9598": " rinse",
  "9599": " stirs",
  "9600": " Clare",
  "9601": " springtime",
  "9602": " imaginations",
  "9603": " Jump",
  "9604": "Ooh",
  "9605": " babys",
  "9606": " desperately",
  "9607": " pollen",
  "9608": " caution",
  "9609": " overfl",
  "9610": "aps",
  "9611": " racer",
  "9612": "icking",
  "9613": " floppy",
  "9614": " desks",
  "9615": " uncovered",
  "9616": " stains",
  "9617": "Fire",
  "9618": " Mac",
  "9619": " dolly",
  "9620": " deciding",
  "9621": " pounds",
  "9622": "Only",
  "9623": " mesmerised",
  "9624": " nets",
  "9625": " Missy",
  "9626": " passenger",
  "9627": " speaker",
  "9628": "oga",
  "9629": " hooks",
  "9630": "€œS",
  "9631": "€œAre",
  "9632": "Pete",
  "9633": " stacking",
  "9634": " wrapper",
  "9635": " Nurse",
  "9636": " Things",
  "9637": " progress",
  "9638": " folds",
  "9639": " roamed",
  "9640": " Skip",
  "9641": " priv",
  "9642": " necessary",
  "9643": " Robin",
  "9644": " process",
  "9645": "just",
  "9646": " Doctor",
  "9647": " chili",
  "9648": " messed",
  "9649": " introducing",
  "9650": " piled",
  "9651": " cutest",
  "9652": " wax",
  "9653": " fulf",
  "9654": " recommendation",
  "9655": "mate",
  "9656": " energ",
  "9657": " hatch",
  "9658": " parks",
  "9659": "Jump",
  "9660": " Pink",
  "9661": " vinegar",
  "9662": " trim",
  "9663": " fooled",
  "9664": " cooed",
  "9665": " desperate",
  "9666": "onest",
  "9667": " disobeyed",
  "9668": " obediently",
  "9669": " amongst",
  "9670": " pecks",
  "9671": "erts",
  "9672": "onut",
  "9673": " babysitter",
  "9674": "ically",
  "9675": " undone",
  "9676": " anten",
  "9677": " maps",
  "9678": " yummiest",
  "9679": " kinder",
  "9680": "Baa",
  "9681": " Bouncy",
  "9682": " champ",
  "9683": " chains",
  "9684": " Pa",
  "9685": " confus",
  "9686": " confusion",
  "9687": " shooed",
  "9688": " hovering",
  "9689": " kissing",
  "9690": " desserts",
  "9691": " magnificent",
  "9692": "rons",
  "9693": " hoses",
  "9694": "aste",
  "9695": " aprons",
  "9696": " purring",
  "9697": " allergic",
  "9698": " Moon",
  "9699": " clubs",
  "9700": "Mike",
  "9701": " dedic",
  "9702": " gulped",
  "9703": " Mumma",
  "9704": " widely",
  "9705": " coconut",
  "9706": " differences",
  "9707": " laces",
  "9708": " date",
  "9709": "ingu",
  "9710": " alligators",
  "9711": " instincts",
  "9712": "Un",
  "9713": " hamster",
  "9714": " hadnâ",
  "9715": " JoJo",
  "9716": " sleigh",
  "9717": "Leo",
  "9718": " Years",
  "9719": "isbee",
  "9720": "umed",
  "9721": "keepers",
  "9722": " wanna",
  "9723": " swat",
  "9724": "mers",
  "9725": " charged",
  "9726": " greatest",
  "9727": " bundle",
  "9728": " exhib",
  "9729": " ric",
  "9730": " cuc",
  "9731": " untangle",
  "9732": " rinsed",
  "9733": " unz",
  "9734": " scut",
  "9735": "ayla",
  "9736": " Instantly",
  "9737": " scratchy",
  "9738": " compromise",
  "9739": " Greg",
  "9740": " reflect",
  "9741": "bed",
  "9742": " silently",
  "9743": " Nicky",
  "9744": " coop",
  "9745": " comets",
  "9746": "bs",
  "9747": " Lightning",
  "9748": " ostriches",
  "9749": " roller",
  "9750": " Father",
  "9751": " nibbling",
  "9752": " valleys",
  "9753": "ellow",
  "9754": " bolt",
  "9755": " lunchbox",
  "9756": " army",
  "9757": " doggie",
  "9758": " cloths",
  "9759": "-Choo",
  "9760": "Isn",
  "9761": " depths",
  "9762": " performers",
  "9763": " headache",
  "9764": " tempting",
  "9765": " drill",
  "9766": " Which",
  "9767": " ages",
  "9768": " Gogo",
  "9769": " Faith",
  "9770": " Sean",
  "9771": " doves",
  "9772": " borrowing",
  "9773": " blur",
  "9774": " gladly",
  "9775": "aming",
  "9776": " crafts",
  "9777": " snoring",
  "9778": " halves",
  "9779": " files",
  "9780": " creak",
  "9781": "-shirt",
  "9782": " squirted",
  "9783": " Eve",
  "9784": "hh",
  "9785": " bait",
  "9786": " rocky",
  "9787": "dia",
  "9788": " Rick",
  "9789": " learner",
  "9790": "form",
  "9791": " mustn",
  "9792": " keen",
  "9793": " lif",
  "9794": "Zoom",
  "9795": " Olly",
  "9796": " Muff",
  "9797": " hippos",
  "9798": " unfold",
  "9799": "'am",
  "9800": " slurp",
  "9801": "los",
  "9802": " indo",
  "9803": " indoors",
  "9804": " Otherwise",
  "9805": " challenged",
  "9806": " lil",
  "9807": " gummy",
  "9808": "acey",
  "9809": " riddle",
  "9810": " confidently",
  "9811": " Fay",
  "9812": " gradually",
  "9813": "Mar",
  "9814": " croak",
  "9815": " handy",
  "9816": "idi",
  "9817": " cluck",
  "9818": " pizzas",
  "9819": " Turn",
  "9820": " scre",
  "9821": " towns",
  "9822": "free",
  "9823": " rotted",
  "9824": " gooey",
  "9825": " royal",
  "9826": "of",
  "9827": "andel",
  "9828": " Jelly",
  "9829": "she",
  "9830": "?!",
  "9831": "imbo",
  "9832": " Lydia",
  "9833": " softest",
  "9834": " escap",
  "9835": " Rusty",
  "9836": " detect",
  "9837": " Puddles",
  "9838": " Joseph",
  "9839": " retrie",
  "9840": " Brother",
  "9841": "-out",
  "9842": " shoelaces",
  "9843": "Aw",
  "9844": " laws",
  "9845": "aroni",
  "9846": " Bea",
  "9847": " Billie",
  "9848": " bloss",
  "9849": "rings",
  "9850": " toppings",
  "9851": " galloped",
  "9852": " appearance",
  "9853": " stings",
  "9854": " Pear",
  "9855": " Books",
  "9856": "ousy",
  "9857": "orse",
  "9858": " flavour",
  "9859": "Bless",
  "9860": " tiring",
  "9861": "€œWill",
  "9862": " Hi",
  "9863": "can",
  "9864": " sends",
  "9865": " steered",
  "9866": " Tri",
  "9867": "Fred",
  "9868": "zing",
  "9869": " Clean",
  "9870": "OO",
  "9871": "Toby",
  "9872": " ass",
  "9873": " Though",
  "9874": " Noah",
  "9875": " tastiest",
  "9876": " sinking",
  "9877": " echo",
  "9878": "ongratulations",
  "9879": " Bug",
  "9880": " unicorns",
  "9881": " Raven",
  "9882": " enjoys",
  "9883": " overhe",
  "9884": "-fived",
  "9885": "inner",
  "9886": " enclos",
  "9887": " enclosure",
  "9888": " freely",
  "9889": " peacefulness",
  "9890": " host",
  "9891": " Play",
  "9892": " science",
  "9893": " boyâ",
  "9894": " scrubbing",
  "9895": "izza",
  "9896": " Cro",
  "9897": " Panda",
  "9898": " boiled",
  "9899": " hovered",
  "9900": " globe",
  "9901": " route",
  "9902": " crushed",
  "9903": " sparrow",
  "9904": " Black",
  "9905": " Biggie",
  "9906": " automobiles",
  "9907": " hare",
  "9908": "Bu",
  "9909": " Too",
  "9910": " Grumpy",
  "9911": " niece",
  "9912": " rooster",
  "9913": " carton",
  "9914": " pecking",
  "9915": " brakes",
  "9916": "ality",
  "9917": "arning",
  "9918": " earrings",
  "9919": " hates",
  "9920": " scrunched",
  "9921": " guesses",
  "9922": " Carly",
  "9923": " gorge",
  "9924": " Lucyâ",
  "9925": " occasions",
  "9926": " risky",
  "9927": " mashed",
  "9928": " beeping",
  "9929": " Piggy",
  "9930": " fluff",
  "9931": "Emily",
  "9932": " lur",
  "9933": " dumb",
  "9934": "aly",
  "9935": " lilies",
  "9936": " stacks",
  "9937": " Fran",
  "9938": "nda",
  "9939": " lightly",
  "9940": "why",
  "9941": " leaped",
  "9942": " plat",
  "9943": "ki",
  "9944": " whizz",
  "9945": " Boy",
  "9946": " ashes",
  "9947": "cloth",
  "9948": "-hand",
  "9949": " fuss",
  "9950": " Del",
  "9951": " fail",
  "9952": "gr",
  "9953": "umn",
  "9954": " god",
  "9955": "Guess",
  "9956": " Rory",
  "9957": " dusted",
  "9958": " hunger",
  "9959": " snuggling",
  "9960": " Wisdom",
  "9961": " Mousy",
  "9962": " restoring",
  "9963": " winners",
  "9964": " pounding",
  "9965": " plumber",
  "9966": "elve",
  "9967": " fashionable",
  "9968": " organised",
  "9969": " drip",
  "9970": " swoop",
  "9971": " feathered",
  "9972": " taps",
  "9973": " gorgeous",
  "9974": " stinky",
  "9975": " Muffin",
  "9976": " rider",
  "9977": " deserves",
  "9978": " macaroni",
  "9979": " shortcut",
  "9980": " Kids",
  "9981": " dripped",
  "9982": "Paul",
  "9983": " lonel",
  "9984": " Doug",
  "9985": "cr",
  "9986": " regularly",
  "9987": "Playing",
  "9988": " department",
  "9989": " stroller",
  "9990": " softness",
  "9991": " whiskers",
  "9992": "udy",
  "9993": " halfway",
  "9994": " enthusiastically",
  "9995": " whines",
  "9996": " carefree",
  "9997": " builders",
  "9998": " Use",
  "9999": " Tell"
}